{"snuck": 27731, "bug": 15430, "\u00e9": 255, "eve": 23491, "##itive": 8588, "Slovakia": 10958, "Moreno": 19388, "##front": 11949, "Intelligence": 7829, "Theological": 14029, "Interactive": 17353, "seeded": 14937, "registry": 25097, "##sed": 5591, "less": 1750, "retention": 23406, "wash": 10124, "Scientology": 26973, "##ogical": 20946, "different": 1472, "Ocean": 4879, "issuing": 16141, "Loser": 16462, "\u016f": 330, "intently": 17184, "##ologists": 16511, "Divisi\u00f3n": 12583, "encompassing": 21143, "Prakash": 24694, "Mortal": 26001, "slower": 12741, "ATP": 12841, "Father": 4505, "placed": 1973, "##marked": 19384, "clouds": 8435, "analog": 13022, "policies": 5502, "exposure": 7401, "undoubtedly": 19832, "Motown": 25301, "Near": 9669, "medical": 2657, "Colleges": 14590, "Nicola": 18634, "solicitor": 22744, "##AD": 14569, "\u1eed": 763, "##\u05bc": 28444, "Betsy": 24903, "licked": 11206, "grip": 5688, "##stad": 18735, "Half": 8636, "causes": 4680, "closes": 15336, "summary": 14940, "cattle": 6937, "fills": 18878, "##dford": 24020, "persona": 20122, "PBA": 23867, "##\u0582": 28436, "Jenkins": 11076, "##cion": 16012, "touching": 6893, "\u00aa": 207, "cooling": 12147, "Prentice": 26323, "touring": 7048, "feeding": 8453, "##kan": 8752, "Zero": 10670, "Sergio": 15720, "overturned": 18252, "seminars": 19898, "Caracas": 23947, "##\u0937": 28528, "reinforced": 11331, "trombone": 16537, "clinched": 23782, "scientific": 3812, "reasoned": 27763, "u": 190, "When": 1332, "\u0ba4": 672, "diverse": 7188, "grace": 11116, "abrupt": 20494, "Pictures": 7392, "##worked": 26053, "Geography": 20678, "1925": 4053, "Marshall": 5137, "corresponding": 7671, "stuck": 5342, "Lakers": 19713, "238": 24370, "Singer": 10636, "\u09c7": 667, "Yankee": 19045, "Margaret": 4811, "Jerusalem": 6167, "Clifford": 14363, "##\u4e09": 28870, "William": 1613, "Halle": 22867, "##MG": 14666, "blunt": 20294, "supremacy": 27769, "African": 2170, "Patent": 16653, "literally": 6290, "##iol": 19840, "Chinese": 1922, "fluids": 24024, "\u5dde": 1024, "##usive": 17849, "firing": 7142, "##form": 13199, "Venezuelan": 16128, "Sabah": 25114, "##ntly": 15275, "\u05e2": 552, "Rosenberg": 23171, "tornadoes": 28035, "photos": 7630, "abundance": 15569, "1710": 26699, "discover": 7290, "##\uc0ac": 28982, "anthology": 12315, "\u045b": 512, "upstairs": 8829, "Hawks": 14126, "06": 5037, "detector": 21819, "democratic": 9327, "brass": 10488, "##tie": 9570, "vowed": 19562, "##\u6d77": 28945, "Adults": 15584, "rotten": 23076, "appear": 2845, "##lphin": 19030, "quantity": 11978, "limit": 5310, "Player": 5348, "##lina": 10655, "Loop": 18086, "Isaiah": 20464, "basal": 16361, "multiplayer": 20602, "##\u062a": 28477, "Stakes": 8666, "cricket": 5428, "starving": 20285, "communities": 3611, "sensors": 15145, "black": 1602, "Mir": 20522, "##ssing": 23906, "##\u0441": 28403, "Macmillan": 19830, "Ranger": 13415, "energies": 21963, "Spiritual": 23509, "collectors": 16801, "remotely": 21699, "physicians": 15230, "\u0151": 314, "disciplines": 13132, "caretaker": 20893, "1912": 4080, "##\u00f3": 7774, "tech": 13395, "##sk": 5276, "Scream": 26942, "affordable": 19017, "Programming": 21076, "massacre": 11584, "##IO": 19368, "Its": 2098, "Three": 2677, "Quest": 15217, "Steelers": 16060, "Mae": 12255, "magistrate": 20261, "Elise": 14945, "\u0445": 496, "golf": 7135, "##coa": 20535, "posture": 18229, "teaches": 12209, "[unused84]": 84, "delegates": 11914, "persistent": 15970, "react": 10573, "##tur": 20362, "coding": 19350, "Dolores": 23952, "opera": 4677, "mirror": 5220, "ye": 6798, "Less": 13568, "##este": 17563, "##SU": 17281, "Lebanon": 7940, "luxury": 9886, "ignited": 25092, "##ggles": 28068, "[unused16]": 16, "##icking": 26786, "##\u0159": 28242, "##flow": 12712, "metal": 2720, "France": 1699, "decisions": 6134, "##reus": 27534, "promises": 11323, "quartet": 14818, "\u05e1": 551, "magic": 3974, "surged": 20420, "machinery": 11360, "projecting": 20266, "##\u77f3": 28955, "peered": 10650, "turf": 19681, "Baltic": 11306, "dryly": 22874, "Cure": 27121, "converted": 4213, "##yke": 27142, "Boulder": 21266, "cheeks": 5388, "mastered": 20881, "##nics": 21157, "pointless": 27092, "##ths": 26471, "debuted": 5362, "galleries": 14320, "##inator": 24682, "Hunting": 25330, "Derby": 7669, "Blanche": 21086, "Conservation": 8749, "ST": 23676, "bracelet": 21982, "##sse": 11553, "leverage": 24228, "Dane": 15312, "ideology": 14270, "##osh": 14695, "Saharan": 27902, "78": 5603, "##\u041f": 28380, "toilets": 24719, "liable": 21988, "Polk": 22936, "toward": 1755, "Sunshine": 13122, "billionaire": 26961, "##mons": 17199, "Papa": 14885, "piles": 20849, "##inate": 14248, "whilst": 5994, "About": 3517, "shove": 15909, "##\u044c": 28414, "##pus": 10306, "##mund": 13889, "prosperous": 20308, "VII": 8748, "##nea": 25362, "horizontal": 10012, "managed": 2374, "assertion": 26878, "portico": 27774, "Monkey": 18499, "\u3081": 921, "1904": 4975, "##ganized": 24087, "##spect": 20629, "##inen": 19865, "defeating": 5699, "##had": 9574, "accepting": 10795, "threshold": 11810, "##ero": 10771, "preparations": 13751, "\u25a0": 871, "Basilica": 19349, "sweaty": 22199, "Anglican": 9137, "Subsequently": 10608, "finite": 10996, "struggles": 11998, "##membrance": 21207, "##lterweight": 22901, "Slade": 19466, "unemployed": 21424, "Reader": 17608, "Beth": 6452, "Buenos": 8883, "145": 14151, "290": 18374, "amendments": 19696, "Agriculture": 8273, "##truder": 24993, "propeller": 17358, "Montenegrin": 27064, "Tourism": 12067, "136": 16222, "que": 15027, "Agreement": 11225, "restrained": 21775, "wireless": 12784, "Cecil": 12091, "contest": 5235, "SL": 27103, "reelection": 18955, "Bronx": 15115, "council": 3193, "monitor": 8804, "soda": 18402, "oz": 24919, "portable": 15139, "guitars": 7789, "derived": 4408, "cameo": 13405, "share": 2934, "delighted": 17261, "##continent": 25442, "Writing": 8687, "##lerical": 25744, "tiger": 13778, "Lithuanian": 10190, "charming": 14186, "##out": 3554, "##RS": 8900, "##\u9752": 28976, "unfortunately": 16679, "meter": 8227, "pitching": 15943, "speech": 4055, "challenger": 24997, "##jon": 19977, "private": 2029, "crafted": 21165, "button": 6324, "Hang": 19869, "try": 2222, "increases": 6986, "Dexter": 15815, "asshole": 27877, "financed": 14395, "Serge": 24575, "academy": 8717, "##iques": 18853, "muddy": 20670, "separated": 4757, "##rgen": 16648, "operatic": 26350, "##\u1ee9": 28663, "Story": 5145, "cheated": 25695, "##e": 1162, "##bidae": 20761, "##SP": 15735, "confess": 20989, "armament": 18829, "NGO": 23170, "Dinner": 20333, "principal": 3981, "SR": 5833, "##lt": 6066, "##uest": 27648, "Quarterly": 19516, "##nor": 13523, "plantations": 16666, "Gavin": 9152, "##aman": 19853, "##men": 2354, "encouraging": 11653, "chord": 15461, "affecting": 12759, "Crosby": 14841, "towards": 2019, "Top": 3299, "fragile": 14434, "Florence": 7205, "eaten": 8527, "inflammation": 24970, "##\u208e": 28719, "\u0626": 564, "warned": 6926, "incorrect": 18238, "libretto": 19535, "circling": 20774, "shaky": 16591, "##uo": 11848, "quality": 3068, "[unused76]": 76, "Forget": 17323, "Wasn": 23720, "main": 1514, "meadows": 25958, "Copa": 10576, "##dication": 13923, "sheltered": 20052, "credibility": 24315, "385": 27462, "denominations": 18857, "would": 1156, "Middleton": 19059, "territorial": 10120, "##minster": 27057, "##mise": 26806, "##ft": 4964, "RCA": 12833, "##rave": 22116, "promote": 4609, "elevator": 7605, "##nent": 21222, "##gy": 4873, "Khmer": 21259, "##roduced": 27318, "listing": 10530, "terrorist": 9640, "##gano": 18226, "##\u592b": 28905, "Saetan": 26256, "Nationale": 28077, "##titis": 27659, "##ier": 2852, "##if": 8914, "functioning": 12641, "exploring": 12138, "reassuring": 23310, "house": 1402, "Pole": 13172, "cop": 9947, "knight": 11295, "progressed": 12687, "Torino": 27882, "itself": 2111, "##uri": 8212, "Blu": 15223, "##\u266d": 27096, "hosted": 3567, "\u03c2": 435, "252": 25479, "##\u00d3": 28191, "Ching": 24711, "download": 9133, "bites": 17905, "means": 2086, "Teacher": 14208, "highlight": 13426, "jets": 20397, "cities": 3038, "chose": 4102, "additionally": 19148, "##ptic": 8956, "froze": 10539, "butterfly": 11057, "coarse": 23137, "Jet": 13784, "resemblance": 14634, "Leonard": 7377, "Giovanni": 8789, "Into": 14000, "straw": 15235, "##ergic": 26949, "favorite": 5095, "##\u570b": 28898, "Crane": 15972, "definite": 16428, "fins": 20823, "paper": 2526, "##itated": 13512, "streams": 9136, "patrols": 15803, "incorporates": 12560, "##ort": 12148, "continental": 10998, "Color": 13066, "dreaming": 16313, "halftime": 26077, "Slovenian": 17636, "##ancy": 10413, "Willard": 20816, "##\u092f": 28523, "enjoy": 5548, "\u0642": 586, "h": 177, "\u0415": 453, "##he": 4638, "distorted": 21387, "##rassed": 27857, "debts": 14689, "aligned": 14006, "thoughtfully": 21815, "shoreline": 20953, "##tated": 20213, "##tite": 23723, "00": 3135, "##trate": 18775, "appeals": 15996, "##wes": 14291, "Centre": 2961, "##sser": 14607, "allow": 2621, "presents": 8218, "miners": 13418, "Benin": 23552, "vamp": 24414, "Welch": 19370, "wasn": 1445, "##ns": 2316, "Nick": 3350, "uneasy": 16782, "Further": 6940, "Palazzo": 22033, "##ising": 7131, "wires": 15923, "nursery": 17840, "dubious": 26287, "##\u7687": 28952, "interfere": 15891, "21": 1626, "Rotten": 15135, "contrasted": 24681, "##enia": 23179, "Barclay": 26560, "Airlines": 8570, "collaborate": 23200, "##gogue": 26021, "##listed": 26511, "##nda": 7807, "##lag": 18974, "uprising": 13034, "orbits": 22508, "glued": 25615, "varsity": 17611, "##rio": 8558, "Stacey": 21807, "Hermann": 12360, "mutual": 9175, "health": 2332, "rolls": 12205, "##cie": 25982, "technically": 12444, "Columbia": 3132, "Dallas": 5043, "Germany": 1860, "##signed": 16173, "appointments": 16323, "Basin": 10432, "Tyrone": 20314, "##AG": 22689, "lent": 20283, "surrounding": 3376, "penetrating": 25395, "120": 5356, "Closing": 23408, "granting": 16078, "catchment": 27011, "Bulgaria": 7599, "semi": 3533, "##ized": 2200, "Below": 12219, "##ars": 7666, "Lam": 21372, "self": 2191, "##zione": 23316, "destination": 7680, "Return": 11121, "trailing": 13161, "Jamal": 27440, "depicted": 7801, "belonging": 7078, "##IR": 18172, "foolish": 14723, "Aunt": 8416, "Kerala": 8627, "tanks": 6977, "Cheung": 26475, "auditioned": 25728, "true": 2276, "Manchester": 4280, "##kal": 14046, "Mont": 20018, "##pped": 10438, "Trump": 8499, "sizes": 10855, "vendor": 26111, "Winning": 24627, "Mohamed": 15083, "CR": 15531, "##\u057f": 28434, "reserve": 4837, "cows": 19816, "artwork": 8262, "loading": 10745, "GT": 14965, "##ady": 16196, "chemical": 5297, "\u099a": 644, "##d": 1181, "Chicken": 18770, "workplace": 19328, "mainland": 8684, "Clubs": 18812, "Songs": 6080, "sigh": 6106, "Brad": 7796, "##cence": 14797, "Bang": 12926, "elevations": 20341, "\u4e8c": 982, "##hren": 22165, "142": 17048, "Pok\u00e9mon": 22926, "predatory": 24519, "ship": 2062, "dismissed": 6714, "##ater": 19987, "Don": 1790, "Superior": 10905, "##cco": 14566, "gum": 19956, "NY": 5883, "colored": 6805, "grenade": 19487, "##\u30ac": 28831, "##\u6b63": 28938, "transmit": 21994, "Doncaster": 20474, "Yun": 27413, "Image": 15065, "Article": 8554, "Albanian": 9104, "readers": 8460, "\u0561": 515, "dealers": 19499, "Johan": 13402, "##crat": 23383, "Planet": 9522, "ridge": 8699, "arrive": 6657, "Wolfe": 14815, "##eric": 26237, "Homeland": 21725, "Zoo": 13899, "homes": 4481, "blogs": 27220, "\u057d": 523, "Quebec": 5181, "determination": 9220, "Districts": 18803, "Freiburg": 25476, "vow": 22417, "##classified": 23916, "##ilities": 27968, "Legacy": 15512, "diversity": 9531, "##vous": 11944, "Vicar": 22269, "f\u00fcr": 11436, "locations": 4541, "Dirk": 19862, "turnover": 23804, "Jamaican": 19198, "##put": 16156, "##dging": 13556, "##about": 20230, "##powder": 24272, "Un": 12118, "there": 1175, "legal": 2732, "18": 1407, "web": 5127, "aching": 15790, "nak": 20084, "\u00a32": 24155, "mastering": 14451, "Sloane": 18823, "invading": 19185, "element": 5290, "oblique": 23455, "##\u0f62": 28594, "skier": 23848, "independence": 4574, "51": 4062, "##s": 1116, "heels": 8260, "appreciate": 8856, "freight": 8872, "mornings": 19622, "Political": 6679, "overwhelmed": 14127, "Leicestershire": 21854, "##cross": 17414, "towels": 27715, "siege": 8098, "Bangalore": 14560, "source": 2674, "Worth": 12554, "guiding": 18111, "Destroyer": 24473, "acquire": 9703, "Treaty": 6599, "agree": 5340, "midnight": 9191, "CSI": 25011, "obsessed": 17597, "##bek": 17327, "##VR": 19400, "slight": 6812, "tied": 4353, "substitution": 24393, "banned": 7548, "##uter": 18614, "rivers": 6319, "syllables": 23192, "Approximately": 16349, "refusal": 14686, "##cultural": 19418, "contribute": 8681, "absurd": 21321, "vertically": 22026, "Wexford": 25783, "margins": 18717, "forge": 26621, "journalists": 9891, "Reagan": 11546, "arousal": 21019, "##teacher": 27889, "haze": 19691, "##oters": 21670, "foot": 2555, "##fines": 27084, "Feeling": 13085, "Mt": 13086, "\u6b66": 1046, "Border": 12331, "Cooperative": 22892, "##llis": 15310, "##isk": 13189, "Siemens": 24824, "##rlene": 25140, "Place": 5033, "##lution": 18404, "##cilla": 23694, "imagine": 5403, "Clarence": 11863, "compromise": 13018, "dependence": 20917, "Aviv": 12927, "destroyer": 11871, "navigate": 24713, "Moines": 25998, "dissolution": 13679, "festivals": 7731, "Warm": 26252, "##\u05b7": 28441, "streets": 4324, "entity": 9127, "##lossom": 21853, "happiness": 9266, "ant": 22904, "##zed": 5305, "Straits": 24884, "##ail": 11922, "Bucharest": 14806, "##erman": 14170, "Newcastle": 7685, "Panama": 8392, "\u0625": 563, "##que": 3530, "Find": 15944, "Darryl": 25389, "DJs": 27353, "lazy": 16688, "##CM": 27847, "huge": 3321, "lays": 22307, "Atl\u00e9tico": 18034, "##inia": 25397, "##kos": 22068, "Mindanao": 26576, "##za": 3293, "employee": 7775, "##\u30de": 28856, "Scotch": 26549, "##zai": 27919, "##mis": 15394, "##fly": 15911, "##\u1d63": 28623, "##lid": 17299, "placing": 6544, "seized": 7842, "1840": 8535, "migrant": 25496, "Nairobi": 23248, "##gart": 23052, "##i\u00e8re": 19999, "behaviour": 9151, "ministers": 9813, "##\u0101b\u0101d": 22651, "audible": 22395, "Annette": 25022, "buzzing": 22601, "curly": 24584, "\u30a4": 933, "note": 3805, "remake": 13226, "universally": 23578, "curled": 7787, "waived": 17548, "\u0902": 605, "Rebel": 17961, "cafe": 17287, "##aru": 19131, "Donna": 11351, "humour": 19311, "affirmed": 22062, "medications": 23897, "bicycles": 25377, "creates": 8743, "explicit": 14077, "##\u013e": 28232, "Luigi": 15904, "charcoal": 21648, "##rked": 23499, "sighed": 4756, "##OE": 19825, "##ion": 1988, "##jay": 16860, "Whatever": 6853, "mile": 2837, "Ad": 24930, "##lyn": 8068, "Catalogue": 20813, "encounters": 12270, "Marley": 22197, "Jacob": 5549, "##resh": 21298, "##ntiary": 24051, "extinct": 8256, "\u044b": 502, "propaganda": 11516, "investigating": 11950, "hugged": 10167, "##oat": 20534, "Costello": 23093, "2014": 1387, "##bro": 12725, "##derman": 17951, "championship": 2899, "Billboard": 4192, "dirty": 7320, "##rung": 20901, "glacier": 19121, "##ffs": 13348, "wrath": 23127, "exhibits": 10877, "Summers": 22596, "conspicuous": 21382, "values": 4718, "\u05d8": 543, "Alongside": 26589, "til": 27216, "##lient": 19526, "Craig": 6422, "when": 1165, "rushing": 8248, "Bat": 21928, "decorations": 15707, "tenor": 9969, "\u0f53": 688, "##box": 8757, "terminology": 20925, "Si": 14159, "265": 22486, "boat": 3499, "walled": 20016, "##op": 4184, "unique": 3527, "disgust": 13155, "hunted": 15991, "l": 181, "structural": 8649, "knocking": 10760, "descended": 9026, "big": 1992, "Directorate": 15237, "Loki": 27268, "Sessions": 18003, "investigations": 11041, "##\u0924": 28515, "Gang": 12469, "##\u2218": 28747, "re": 1231, "Hemisphere": 24371, "rhetoric": 21933, "##ont": 9921, "exclusion": 18434, "sale": 4688, "rely": 11235, "Woodrow": 26861, "visitor": 11972, "power": 1540, "27th": 15757, "vicar": 19228, "compassion": 18027, "desirable": 17483, "##minate": 17379, "Hugo": 9110, "##eka": 19413, "##zzling": 18537, "impatiently": 22086, "seldom": 17336, "\u30c8": 953, "specials": 25736, "carrying": 4004, "conversation": 3771, "Cathy": 19732, "fascinated": 17136, "fortified": 14149, "flicker": 20454, "for": 1111, "304": 26714, "replaces": 22974, "##ncia": 22313, "depending": 5763, "conform": 26736, "convoy": 10643, "Marketing": 13801, "withdrawn": 9512, "##ivating": 19012, "##llin": 23824, "Civic": 13513, "distress": 13632, "Filming": 23773, "##\u016b": 9798, "##alty": 21733, "##ch": 1732, "##pical": 15328, "speeding": 24485, "ins": 22233, "##ntes": 21713, "rated": 6317, "Nepali": 26246, "linen": 19838, "Haitian": 23595, "##haman": 24045, "Cecilia": 20391, "Reservoir": 15220, "##ieving": 24999, "assignments": 15799, "Creation": 19470, "cyclists": 25999, "gradually": 6044, "Mann": 10852, "Base": 5524, "##ci": 6617, "exclude": 26132, "1831": 10897, "advised": 9213, "Helsinki": 12471, "##ikos": 25529, "Clear": 15458, "rag": 26133, "\u0f72": 694, "Tito": 22754, "Boston": 2859, "Articles": 21191, "##ceding": 23304, "Tim": 4446, "Ministers": 15102, "##WS": 18019, "travellers": 25199, "attended": 2323, "Surgery": 17910, "Coral": 20385, "joked": 21455, "club": 1526, "##grading": 20407, "Honda": 12110, "Twelve": 12564, "Bihar": 17301, "Shut": 15104, "##note": 17113, "\u207f": 810, "nods": 11294, "currency": 10202, "recreational": 11240, "recreation": 12729, "##igma": 25548, "##AS": 10719, "Pac": 19430, "##ela": 9945, "Strand": 21939, "23": 1695, "\u6728": 1038, "##tun": 19972, "par": 14247, "vain": 18329, "estuary": 24703, "##ged": 3660, "interventions": 22496, "##sque": 16803, "plug": 15244, "##ink": 10223, "##47": 24766, "\u09df": 670, "\u2227": 856, "Burlington": 16402, "emigrated": 11384, "sentences": 12043, "##sport": 21209, "cumulative": 27574, "lid": 14753, "Claremont": 26537, "##ahl": 24166, "leak": 19299, "badge": 13088, "alter": 13000, "adverse": 16798, "disagreement": 19855, "alright": 15354, "Columbus": 8555, "Phantom": 13850, "continually": 15395, "conducted": 3303, "##UP": 18124, "willed": 25369, "\u0622": 561, "Heath": 10640, "desire": 4232, "Follow": 19253, "##stable": 23276, "##ienne": 18559, "matrix": 8952, "##quatorial": 23416, "OK": 10899, "teachings": 12815, "Unless": 12998, "eerie": 21914, "Emergency": 11177, "##alis": 14200, "vaulted": 27958, "Freeman": 11818, "obligations": 15337, "##orous": 18133, "##hra": 20955, "##nob": 22360, "##last": 19268, "axis": 9840, "Gage": 9941, "strolled": 22271, "Assistant": 5414, "skeptical": 21333, "Italians": 17867, "word": 1937, "rip": 13579, "tend": 6613, "Cork": 8711, "visibly": 21408, "month": 2370, "ha": 5871, "da": 5358, "magical": 9214, "anxious": 11841, "conditioned": 25592, "Gods": 11795, "##=": 28143, "Words": 13212, "inconsistent": 22410, "##ibe": 13374, "tracking": 10066, "Socialist": 7365, "##\u2605": 28767, "angels": 13266, "roll": 5155, "Key": 7443, "derivatives": 18952, "isolated": 6841, "offer": 2906, "##rone": 18516, "archbishop": 19026, "##tains": 22748, "Bachelor": 6143, "backbone": 25776, "Oh": 2048, "##dy": 3810, "Brave": 20853, "doubted": 13216, "CP": 20360, "contrasts": 26856, "##sh": 2737, "##rsten": 20628, "##bright": 17736, "##\u03a6": 28331, "surprise": 3774, "Smart": 13015, "Izzy": 17779, "priced": 23812, "headquarters": 3834, "asleep": 6153, "##immer": 26582, "Leah": 14809, "inadequate": 15694, "Walsh": 10984, "Grove": 8051, "##uration": 23022, "Heather": 9644, "sarcastic": 25322, "widely": 3409, "321": 26963, "prepare": 7034, "Jones": 2690, "markets": 5809, "notes": 3697, "1871": 6899, "##abad": 9671, "parked": 8806, "inventions": 26627, "picturesque": 27667, "II": 1563, "##sight": 18883, "##agon": 19867, "won": 1281, "b": 171, "grape": 17291, "cycling": 12951, "\u01d4": 347, "log": 9366, "##rine": 8643, "Newman": 10525, "Jeremy": 6983, "Villa": 8064, "swam": 18065, "exhaustion": 17049, "Silent": 15013, "curated": 21092, "Fuck": 10259, "verified": 22480, "hey": 23998, "warship": 26957, "analyze": 19774, "##chair": 22908, "Downtown": 11852, "PS": 12727, "##\u0101n": 20208, "Lights": 13951, "Sullivan": 7124, "satisfied": 8723, "Dorothy": 9771, "Wrong": 20337, "folded": 6443, "clit": 19393, "##jack": 19617, "Bloc": 24675, "Visual": 12071, "##\u05df": 28459, "furrowed": 22538, "Heaven": 7830, "dental": 15360, "speeches": 14948, "evaluating": 27698, "Strasbourg": 19467, "recover": 8680, "concrete": 5019, "accommodation": 11822, "##\u00f2": 20142, "##tain": 11379, "or": 1137, "\u208e": 823, "Early": 4503, "brands": 10915, "disability": 13996, "language": 1846, "Computer": 6701, "am": 1821, "Highlands": 15343, "##\u1f50": 28673, "##ums": 17167, "yesterday": 8128, "geology": 18170, "##pologies": 27632, "assembly": 5839, "Alvin": 18577, "Borough": 7819, "##\u1d50": 28618, "warmer": 18153, "Fame": 4710, "tremendous": 15194, "surviving": 5932, "##\u0131": 12262, "promise": 4437, "##citation": 24214, "##\u0111": 28218, "##luded": 27567, "Kerry": 11253, "bombed": 20812, "debut": 1963, "prefecture": 22041, "##ty": 2340, "\u032f": 392, "drink": 3668, "content": 3438, "##break": 16596, "##egation": 24097, "Flames": 19002, "masterpiece": 22055, "##hazar": 24286, "imply": 21276, "sewing": 27535, "Twins": 15715, "district": 1629, "Portuguese": 4269, "tossed": 6953, "Lodge": 9262, "##bag": 17097, "Seoul": 10853, "trunk": 8716, "doctoral": 12308, "Amir": 22135, "M\u00e9xico": 20697, "Personal": 13907, "plausible": 27918, "founders": 9004, "##\u00bb": 28175, "##varo": 25751, "massive": 4672, "troll": 28000, "electro": 24266, "Strategy": 18050, "##\u00e8ge": 26650, "acknowledged": 8646, "goats": 21235, "G\u00f3mez": 21550, "##jos": 22343, "implements": 24935, "blamed": 11289, "##oise": 17724, "conceal": 21689, "Tate": 9727, "1963": 2826, "quoted": 9129, "painfully": 17562, "Wien": 25505, "##\u01d0": 28267, "##l": 1233, "##ails": 25428, "flight": 3043, "highlands": 27929, "meters": 4865, "erected": 6517, "Lindsay": 12218, "standings": 12813, "using": 1606, "CNN": 13597, "##-": 28137, "absently": 24420, "Always": 10672, "Range": 7389, "##liptic": 24021, "Wanderers": 15131, "##mins": 19296, "Bern": 17666, "333": 23335, "##pment": 22115, "/": 120, "##waters": 20038, "##yan": 6582, "motorway": 15316, "steered": 26386, "Yates": 22260, "Mandy": 19599, "##vina": 19330, "bill": 4550, "Cyprus": 9460, "rusty": 26195, "1996": 1820, "Years": 5848, "mouth": 1779, "notation": 16049, "bays": 15520, "##hine": 17108, "Yerevan": 26082, "slow": 3345, "dissolve": 24907, "##ei": 6851, "corrected": 13808, "Probably": 10109, "##TR": 23313, "loyalty": 10075, "Martial": 24800, "orders": 3791, "Leafs": 23932, "Stokes": 20476, "produced": 1666, "polar": 15281, "##\u012a": 28228, "strangers": 15712, "sheets": 8675, "hovered": 19594, "Dub": 20691, "little": 1376, "##dorf": 10414, "moon": 5907, "\u10e1": 705, "Justice": 3302, "possesses": 15614, "innovations": 18168, "sealed": 10410, "downtown": 5215, "remarks": 13570, "##\u091c": 28513, "Burt": 20215, "##SM": 16450, "##rrell": 11862, "tongues": 24403, "upper": 3105, "Instead": 3743, "subsidiaries": 22423, "Harrisburg": 27676, "SUV": 16536, "participants": 6635, "##nington": 24288, "medial": 27598, "Antwerp": 14492, "##uid": 16423, "##cake": 19453, "released": 1308, "Multi": 18447, "##natch": 25703, "##wami": 27687, "\u1ea7": 741, "refined": 16686, "hall": 2885, "fin": 15301, "newcomer": 25551, "##idated": 27893, "fourteenth": 20872, "\u30d1": 959, "##WI": 25190, "wilderness": 15211, "##gie": 9747, "Burning": 17807, "you": 1128, "monster": 7121, "lions": 20050, "##frey": 24740, "Poles": 17410, "principally": 17841, "Amy": 6279, "##\u0bc1": 28584, "nude": 17899, "Why": 2009, "Wagner": 10171, "##naire": 24730, "packs": 16777, "take": 1321, "illuminated": 15888, "moss": 24908, "Jeremiah": 18789, "ones": 3200, "regiment": 5649, "admits": 15077, "tracing": 19225, "Model": 6747, "Reece": 27208, "dominant": 7065, "standards": 4473, "barred": 17081, "##jects": 26394, "Blackburn": 14428, "hits": 4919, "lieu": 27190, "Bingham": 27721, "phenomenon": 9501, "##vening": 24248, "here": 1303, "##oko": 26793, "shortage": 16907, "Consider": 25515, "efforts": 3268, "Guard": 4813, "formulation": 22661, "##cuted": 26357, "palm": 5824, "publishers": 13599, "periods": 6461, "studied": 2376, "##uses": 14225, "##uerra": 27519, "##sner": 23430, "##tring": 28108, "nightmare": 12178, "Oct": 14125, "reactors": 25521, "Marcus": 6042, "##burn": 6715, "mail": 6346, "perimeter": 14573, "disciplinary": 21334, "##\u00b1": 28168, "##\u03bf": 28351, "disadvantage": 22611, "##rley": 12586, "Encyclopedia": 15047, "Exactly": 18342, "Lund": 24232, "##sky": 4969, "Statistics": 10910, "selecting": 19752, "##usage": 27130, "occupying": 14854, "reconnaissance": 11469, "affair": 7033, "synonym": 10646, "Weber": 13718, "synthesizers": 26000, "50": 1851, "x": 193, "Rider": 14187, "Dear": 12956, "chat": 13287, "STS": 25435, "##toon": 23960, "115": 10520, "##\u0447": 28409, "[unused14]": 14, "57": 4667, "provinces": 7112, "clocks": 24998, "Town": 2779, "Fitzroy": 27477, "Joe": 2658, "White": 2061, "hearing": 4510, "##act": 11179, "Lambert": 13056, "##lating": 18156, "pinned": 11973, "Q": 154, "##tering": 9930, "##ating": 3798, "Jameson": 24791, "approved": 4092, "taxes": 7538, "agreements": 11069, "##pf": 20201, "##collegiate": 23791, "Desmond": 17190, "Bolshevik": 27904, "##ische": 15890, "##ds": 3680, "drops": 8949, "Cleopatra": 24432, "206": 20278, "albums": 3770, "sipped": 19055, "spreading": 9243, "warehouses": 26783, "Talbot": 15547, "Expressway": 15616, "knives": 14726, "##fari": 21975, "provisional": 16750, "Sunderland": 16362, "Goodbye": 15938, "##inal": 14196, "\u0bbf": 680, "##voked": 18891, "Campo": 25896, "once": 1517, "children": 1482, "yells": 25044, "composed": 2766, "##diation": 25971, "per": 1679, "##amo": 16931, "nightmares": 18118, "Ella": 11915, "##sation": 20414, "needles": 20625, "desired": 8759, "determines": 17579, "Bay": 2410, "deleted": 18931, "panties": 12351, "announcement": 8679, "Emilio": 20555, "91": 5539, "generated": 6455, "Nate": 7848, "heating": 11187, "##nson": 15703, "spaced": 22445, "strides": 24901, "##\u017c": 28259, "Montevideo": 24942, "Thing": 11675, "##ulum": 19463, "burial": 9278, "##\u03c1": 28353, "designation": 7970, "softball": 17607, "limo": 27297, "selected": 2700, "quantities": 12709, "unaware": 11987, "Landon": 22613, "pinyin": 10307, "lab": 8074, "shear": 21660, "##sex": 23152, "Thorne": 14872, "##BM": 27616, "Brass": 20982, "##Ps": 17598, "met": 1899, "Pink": 10763, "Boise": 25941, "##resses": 26628, "plotting": 23214, "##park": 14967, "accurately": 14702, "kindly": 21559, "##sumption": 16937, "relates": 15286, "stepfather": 24133, "unpublished": 22255, "Gordon": 4345, "Rourke": 27446, "squinted": 18654, "Passenger": 20252, "smirked": 20319, "cured": 24265, "Cohen": 9735, "##\u6c0f": 28940, "##smo": 26358, "Baronet": 9023, "stationed": 8651, "launching": 12611, "##roots": 25142, "held": 1316, "boxes": 8171, "##\u018f": 28262, "48": 3615, "implement": 10407, "followed": 1723, "whatever": 3451, "Sure": 6542, "skeletal": 23400, "hesitation": 13941, "shores": 16084, "Cross": 3156, "balloons": 26219, "##haft": 26484, "Flood": 19590, "\u1ef9": 767, "Beat": 11938, "Sculpture": 19477, "2005": 1478, "##\u672c": 28932, "Courthouse": 20243, "Spokane": 24193, "lightweight": 14939, "administrative": 3207, "Ljubljana": 23835, "season": 1265, "##mata": 23436, "##cola": 19673, "Lange": 24192, "prevent": 3843, "ibn": 10452, "stacks": 24879, "reminds": 16816, "endowment": 27738, "##\u53f8": 28892, "beef": 14413, "None": 7330, "##mb": 12913, "Sul": 27040, "##\u307f": 28812, "##fies": 16847, "precursor": 15985, "thorough": 17213, "##nga": 12253, "\u221a": 854, "Schwartz": 17834, "1915": 4135, "Camille": 17756, "Rapid": 16356, "everything": 1917, "navigation": 11167, "yields": 17376, "codes": 9812, "drafting": 25184, "##ll": 2339, "sunset": 16855, "Emma": 4913, "textiles": 23469, "Pontiac": 27681, "knots": 9399, "Feel": 14425, "Wine": 15054, "##\u0456": 28418, "\u30fc": 975, "##\u05d8": 28453, "Tribal": 24252, "locals": 10953, "\u00c9tienne": 26276, "offspring": 14416, "##rial": 13119, "thereby": 8267, "recommend": 18029, "Volunteer": 12744, "fridge": 18243, "drank": 10741, "##iers": 11528, "dragons": 14744, "XIII": 16214, "pose": 14131, "this": 1142, "Quick": 18911, "##cards": 18464, "deported": 19414, "Huh": 27158, "##di": 3309, "dependent": 7449, "104": 9377, "Gun": 11274, "##ution": 12964, "feminine": 13385, "kinda": 21884, "Wentworth": 22541, "Produced": 13662, "##green": 24448, "##gh": 5084, "learnt": 22215, "reached": 1680, "##iary": 18665, "daughters": 5421, "storage": 5092, "conjecture": 26031, "Garcia": 10233, "Whenever": 20589, "\u9fb8": 1088, "Sir": 2203, "needy": 27819, "Colonel": 4212, "fertile": 16332, "Dixie": 20578, "rebels": 9283, "enough": 1536, "Brady": 10004, "##\u5dde": 28917, "leaf": 7404, "##ished": 9980, "Rodney": 14360, "friction": 16630, "Distance": 22694, "##aic": 22950, "youngest": 6074, "tubes": 11182, "[unused26]": 26, "Antarctic": 10053, "airplane": 15478, "##jas": 25983, "##$": 28128, "Cambridgeshire": 27171, "algebra": 13450, "hotels": 10723, "rooted": 16906, "##aja": 22558, "McGee": 24539, "vassal": 28080, "encouragement": 17568, "1916": 4145, "marketing": 6213, "##aked": 21709, "feminist": 12080, "Asher": 18479, "Kensington": 19087, "Gentleman": 25623, "tablets": 20159, "##\u0926": 28516, "##rid": 10132, "Delhi": 6175, "spans": 15533, "zoo": 15003, "skirts": 20103, "amounted": 20317, "desktop": 18813, "reluctance": 24072, "Christophe": 26921, "explaining": 10100, "##uc": 21977, "lake": 3521, "##trata": 26649, ":": 131, "Rica": 11585, "acknowledge": 13812, "expensive": 5865, "Guggenheim": 22310, "Community": 3704, "Raphael": 13501, "Seahawks": 23572, "Includes": 25051, "jumped": 4874, "Detroit": 4908, "Making": 10697, "equilibrium": 15784, "##OK": 22027, "##ordination": 24546, "##ss": 3954, "pricing": 25112, "##folia": 26749, "##ynth": 26588, "Not": 1753, "Rudolf": 12995, "assigns": 27043, "Braves": 14864, "##inted": 18862, "##ference": 16792, "##lacing": 24001, "##isse": 19202, "##ag": 8517, "slick": 16715, "Dramatic": 20779, "vision": 4152, "##MF": 18586, "Stream": 22627, "L": 149, "##i\u0107": 7733, "##usions": 27262, "Joey": 9300, "rallied": 27429, "Endowment": 25045, "batch": 15817, "Connecticut": 5432, "settlers": 7056, "defender": 8919, "outlook": 25059, "Tan": 13880, "Sinai": 22986, "##ido": 12894, "##eran": 19776, "CPU": 18701, "##tted": 16787, "prehistoric": 16969, "##wife": 22267, "##ables": 15759, "##wirl": 26137, "drug": 3850, "Die": 5736, "##\u0686": 28502, "Initially": 7245, "survival": 8115, "[unused18]": 18, "returns": 5166, "customers": 5793, "##runk": 26467, "Especially": 11008, "spontaneous": 20061, "salon": 20310, "emission": 17744, "Amanda": 7872, "delayed": 8088, "\u00b0": 211, "vacated": 16216, "Museums": 27070, "Finding": 18036, "10": 1275, "locomotives": 7499, "lobbying": 22085, "Hundreds": 25793, "Blake": 5887, "sideways": 13158, "##ophone": 17826, "Renault": 15234, "pro": 5250, "nineteenth": 9451, "Dragon": 6891, "debates": 15949, "Ranking": 13332, "##eel": 19032, "\u09ac": 654, "##RB": 22672, "covering": 4576, "Nickelodeon": 23025, "caucus": 27690, "Portugal": 5288, "##dick": 25699, "parasite": 25706, "##nta": 13130, "travel": 3201, "##erson": 18608, "##llus": 24960, "Duke": 3131, "garage": 7419, "generate": 9509, "naming": 10505, "\u0292": 374, "freedom": 4438, "analogy": 26799, "chickens": 26199, "##\u00aa": 28164, "Target": 18525, "Rhodesia": 22228, "SAT": 26203, "UCLA": 12553, "controlling": 9783, "2003": 1581, "drawings": 9484, "plunged": 17796, "##berley": 23086, "raiding": 27166, "##tling": 13756, "##\u00c8": 28186, "estimate": 10301, "Bulgarian": 7145, "parent": 6486, "Worst": 25120, "pseudo": 23563, "Casablanca": 27786, "##chenko": 18599, "Practice": 14354, "Lau": 25070, "##come": 19191, "rpm": 14804, "##ared": 13780, "Iris": 13476, "\u01a1": 342, "Showtime": 27640, "Electoral": 14282, "encoding": 18922, "##drum": 25474, "Lion": 9679, "farmer": 9230, "peninsula": 10720, "outlet": 14688, "warmly": 25415, "Speech": 19656, "##entry": 26666, "Cindy": 16774, "numbered": 8324, "soothing": 18059, "##pine": 18351, "##cturnal": 26629, "compelled": 15957, "\u0290": 372, "##our": 6334, "Put": 11913, "##\u02b3": 28299, "Salmon": 22144, "Tanaka": 24128, "nominated": 3639, "##town": 3305, "Sanders": 12195, "Boeing": 10178, "##\u0935": 28526, "talks": 7430, "sticking": 14103, "##ckey": 19254, "confession": 15349, "these": 1292, "erect": 15685, "secrecy": 23541, "sourced": 26442, "\u0424": 467, "Orion": 20634, "Montr\u00e9al": 23687, "Brewer": 24720, "investors": 9660, "##took": 24144, "Earth": 2746, "additions": 14101, "targeted": 9271, "impression": 8351, "unrest": 18366, "##ytic": 23894, "\u85e4": 1069, "drinking": 5464, "##ffed": 9845, "Count": 5704, "Nearby": 22006, "resolved": 10456, "blast": 9232, "NCAA": 5089, "dial": 17693, "planets": 12458, "##reate": 15998, "bookstore": 27714, "Vickers": 20067, "Draw": 22877, "Syria": 7303, "ponds": 20054, "hiding": 5797, "Champions": 4748, "paragraph": 24950, "latest": 6270, "##leading": 28007, "##con": 7235, "\u027e": 364, "axle": 19100, "Kung": 24120, "Veterans": 14027, "hillside": 25068, "down": 1205, "Riley": 7024, "Yourself": 26379, "cache": 21774, "##hism": 26172, "packets": 27284, "impose": 19103, "Lazarus": 26501, "Tango": 25978, "##ia": 1465, "windows": 3751, "wants": 3349, "Nice": 8835, "zombies": 17715, "thought": 1354, "1980s": 3011, "touched": 4270, "consistency": 20904, "##orm": 24211, "Post": 3799, "absorbing": 23774, "##definite": 28090, "rose": 3152, "##ctions": 13945, "Buzz": 22687, "determined": 3552, "Actors": 23351, "##nsis": 11261, "cleaned": 12370, "Paige": 18179, "Guadalajara": 25480, "ambitious": 12914, "Fury": 14615, "orbit": 8895, "##\u00fchrer": 24322, "Sally": 8595, "##quence": 25113, "shale": 25716, "tax": 3641, "signs": 5300, "##vie": 9756, "RC": 25157, "Keith": 6162, "jolt": 26078, "systems": 2344, "Corpus": 21612, "Petersen": 25245, "\u6238": 1029, "ritual": 9181, "ridden": 17698, "crushed": 10613, "ineligible": 25311, "novella": 26995, "##LE": 17516, "spared": 18173, "Belfast": 10189, "Frontier": 13984, "Ohio": 3197, "[unused47]": 47, "##lon": 4934, "Help": 12056, "Odessa": 21613, "grimaced": 20663, "Kit": 18284, "Cathedral": 5761, "patches": 14879, "footing": 25559, "Wales": 2717, "Bone": 17722, "Lisbon": 12007, "bowed": 11543, "##rovisation": 27696, "##\u65b9": 28925, "distributed": 4901, "##icle": 26726, "Has": 10736, "drawing": 4619, "Shake": 25775, "g": 176, "lawyer": 4545, "psychic": 14181, "standardized": 18013, "proportion": 10807, "constraints": 15651, "Natal": 20929, "dozens": 10366, "Factor": 15926, "##unta": 19529, "Cologne": 12312, "##ella": 7772, "\u30e0": 965, "17": 1542, "desperately": 9600, "Patriarch": 17334, "BC": 3823, "lines": 2442, "surprises": 22810, "Chamber": 7018, "truce": 21978, "Erica": 21205, "Sakura": 26364, "Kathy": 15698, "Maccabi": 27016, "Jeep": 19146, "refuses": 10078, "##written": 16674, "carving": 20505, "\u2030": 796, "Ely": 22925, "Austen": 27165, "observer": 14440, "resting": 8137, "##ting": 1916, "teammates": 13646, "steak": 26704, "Featuring": 27397, "forcefully": 25875, "##side": 5570, "Principles": 22265, "cues": 26602, "Naked": 21838, "wheels": 8089, "band": 1467, "##girl": 17001, "strangely": 16352, "gather": 8422, "beg": 13803, "assistants": 19902, "Mendoza": 19406, "angle": 6341, "humor": 8594, "[unused99]": 99, "visits": 7508, "limbs": 10765, "inspiring": 21964, "poking": 24337, "##nae": 16379, "fines": 25488, "##ono": 23038, "Dyer": 27028, "Scholarship": 16856, "##ivate": 18851, "Champagne": 25024, "null": 26280, "##\u00f6": 19593, "##tter": 8634, "password": 25241, "\u1da0": 725, "Scenic": 27314, "system": 1449, "\u1f00": 768, "cool": 4348, "Iranian": 7239, "testified": 15627, "Aid": 15386, "injured": 4475, "observers": 15793, "trillion": 27005, "tips": 10538, "##dered": 26788, "##fluenza": 27206, "permit": 9154, "##noon": 28122, "periodical": 25907, "ribs": 10346, "Toward": 27674, "weary": 18024, "Hawkins": 14289, "preparation": 7288, "McDonald": 9092, "app": 12647, "Reality": 18510, "Bush": 6096, "Dickson": 24440, "##tam": 20284, "pawn": 23903, "cracking": 17254, "Duchess": 12856, "mast": 18871, "##crats": 22292, "Maharashtra": 12626, "Consequently": 13355, "slips": 19106, "Ming": 12590, "elegant": 12002, "Choice": 10373, "contracted": 11058, "\u00f3": 265, "Hinduism": 21415, "moderate": 8828, "Dust": 20180, "fabric": 8113, "Colton": 23065, "##\u30d1": 28852, "document": 5830, "assisting": 15196, "Hours": 13819, "##got": 18855, "Centennial": 20988, "\u201e": 791, "Championship": 1935, "rank": 3997, "##less": 2008, "Beta": 13470, "puzzle": 13544, "Alfredo": 21269, "liturgical": 22628, "H\u2082O": 27995, "##bba": 27261, "Landmark": 18405, "##neck": 19517, "Warren": 5407, "Ives": 26916, "butter": 13742, "Architects": 14650, "pop": 3618, "thing": 1645, "troop": 14768, "\u03c0": 433, "correct": 5663, "programmes": 8473, "RNA": 13254, "Samson": 19893, "lecturer": 10635, "advise": 19961, "disciples": 21429, "##cht": 9817, "born": 1255, "##utter": 18553, "1689": 25221, "##nosis": 27078, "twitch": 27809, "##fold": 10787, "Bangor": 24236, "hide": 4750, "consult": 27231, "##ulent": 16564, "Moody": 17820, "##chester": 17824, "Atari": 20694, "V": 159, "reader": 9728, "crossover": 18847, "Committee": 2341, "controlled": 4013, "##tail": 11154, "##fference": 20954, "cabinets": 22746, "##ano": 7428, "berries": 26571, "##EX": 24654, "Brett": 12161, "RF": 24695, "Liberty": 8146, "Oklahoma": 5154, "Exodus": 23451, "Cut": 15411, "##pelling": 24542, "woken": 25580, "weigh": 18678, "bands": 4393, "##ushing": 17760, "Sang": 22409, "sometimes": 2121, "\u0917": 608, "topped": 9065, "##comb": 17701, "Larry": 5931, "Saudi": 7721, "survives": 14134, "according": 2452, "##lving": 25115, "Der": 9682, "personnel": 4675, "spanned": 19606, "##\u0627\u062f": 25717, "judge": 3942, "F\u00e9lix": 23839, "entirely": 3665, "senators": 21770, "Frost": 12194, "apprenticeship": 24074, "##over": 5909, "##evo": 23663, "##oper": 19807, "##horn": 9772, "Wyoming": 10513, "350": 8301, "littered": 28006, "elder": 8110, "graphs": 21562, "Creed": 21759, "resurrection": 26926, "##safe": 27789, "Bowen": 17220, "laboratories": 17296, "Producers": 24189, "crossing": 4905, "Medici": 25650, "##drome": 12743, "CO\u2082": 22140, "1835": 9955, "##vian": 10644, "widening": 19852, "colony": 6417, "##\u00e1il": 20938, "\u2083": 814, "dam": 6961, "hell": 2630, "1975": 2429, "reasonable": 9483, "Integrated": 18926, "choice": 3026, "Truman": 16057, "19th": 2835, "##ski": 5437, "melted": 12755, "Release": 17443, "choir": 8041, "rumble": 24102, "exploitation": 15880, "##pree": 27147, "coordinator": 13443, "guitar": 2092, "Preparatory": 26329, "270": 14162, "brain": 3575, "Fine": 4730, "recorded": 1802, "ta": 27629, "Roberts": 6444, "##uben": 27076, "\u1f78": 774, "##itis": 10721, "El": 2896, "\u0423": 466, "Mikhail": 11329, "Recent": 13989, "armored": 14085, "legend": 7051, "##ilo": 24755, "popularized": 22390, "Larson": 23360, "Tales": 9931, "##ives": 11355, "country": 1583, "##aldo": 19283, "careers": 11589, "##stop": 26645, "Tad": 26741, "##\u00df": 21426, "tortured": 12730, "Wait": 7911, "Limerick": 16729, "Doug": 8426, "portraying": 18712, "##xe": 16056, "Tiffany": 14989, "entertain": 23490, "##etto": 27394, "arrival": 4870, "liquid": 6161, "Mongolian": 19210, "##ls": 3447, "earth": 4033, "queen": 5746, "broker": 24535, "chatting": 25132, "join": 2866, "restore": 9176, "disposal": 14364, "diameter": 6211, "unsure": 13201, "##G": 2349, "cookie": 25413, "##grounds": 26171, "confirmation": 15468, "##pse": 17783, "snack": 23029, "acting": 3176, "##ew": 5773, "##week": 21394, "##him": 14565, "Variety": 15526, "provide": 2194, "tentative": 23113, "promotions": 18949, "infection": 8974, "warriors": 9171, "slavery": 9401, "polished": 13247, "drum": 7505, "chiefs": 16588, "Leicester": 11248, "Known": 13915, "optimization": 25161, "##locating": 27970, "##erus": 27955, "imperial": 7749, "Achilles": 26919, "##pop": 18299, "Hidden": 19595, "if": 1191, "##brook": 8489, "Lions": 7862, "241": 24776, "TNT": 27196, "##\u2264": 28757, "Sven": 23468, "Edmund": 9196, "Nursing": 15192, "Broken": 12703, "associate": 6500, "Arkansas": 6147, "##rou": 20645, "Howe": 13724, "Bird": 8258, "Botanical": 24136, "Christchurch": 16893, "quarterly": 21081, "Carey": 11833, "Ray": 4150, "honest": 7345, "Rogue": 20481, "Patriotic": 27428, "species": 1530, "elevators": 22167, "##sist": 22398, "##mpt": 18378, "ports": 9267, "Pe\u00f1a": 25273, "Blues": 5791, "##rief": 24683, "##brecht": 22716, "##hered": 22802, "Report": 7178, "##tero": 25710, "fought": 3214, "discussed": 6352, "shown": 2602, "analyst": 14582, "##bate": 13859, "violent": 5973, "##jective": 20913, "\u09a6": 650, "Venus": 11968, "##ons": 4199, "Fabian": 25318, "flesh": 5352, "error": 7353, "spur": 16650, "Vijay": 18214, "As": 1249, "Big": 2562, "designs": 5054, "debate": 5655, "1780": 15763, "##ro": 2180, "##1": 1475, "amino": 13736, "slapped": 11176, "sensory": 19144, "##dgson": 26229, "tons": 5606, "twitched": 17848, "\u6751": 1041, "MLB": 10872, "##BL": 13360, "Pool": 13384, "Geoff": 15620, "whom": 2292, "Ventura": 23361, "fourteen": 7840, "worry": 3994, "Milton": 9398, "healing": 9523, "eighteenth": 14772, "FCC": 15121, "Commons": 7554, "##kick": 27982, "citizens": 4037, "reward": 10703, "ballroom": 20511, "##cona": 26639, "##oli": 11014, "Xu": 17584, "armies": 9099, "link": 5088, "Texans": 25904, "jeans": 5831, "reflecting": 11636, "effectiveness": 12949, "energetic": 20069, "Tamara": 24251, "comfortable": 6062, "mineral": 10956, "Monterey": 21635, "Systems": 6475, "coordinating": 27513, "##wang": 15946, "Murder": 12082, "##qualified": 25005, "version": 1683, "##\u30ec": 28864, "finances": 18488, "approximately": 2324, "residency": 16917, "##age": 2553, "shallow": 8327, "contributor": 12708, "##iar": 26230, "##lion": 12489, "##down": 5455, "refused": 3347, "archaeology": 19620, "leads": 4501, "recovering": 14299, "Clarkson": 20177, "approached": 4685, "talk": 2037, "Technologies": 14164, "Charlotte": 5204, "##tein": 7242, "practitioners": 16681, "sought": 4110, "Nelson": 5232, "neared": 22853, "flying": 3754, "Bratislava": 25618, "Mathematical": 16298, "chancellor": 15046, "\u2077": 805, "twelfth": 13688, "heightened": 23442, "contrary": 11565, "active": 2327, "swung": 7185, "cylinder": 7613, "##fire": 7117, "205": 17342, "predominant": 23375, "coincided": 20126, "##gues": 17423, "##oy": 7341, "Horse": 7429, "Thousands": 26159, "1815": 10569, "Elite": 13995, "endings": 25289, "##ucking": 22045, "sprang": 16636, "sweating": 21234, "Olaf": 22745, "mimic": 27180, "Hunters": 17998, "Winfield": 27895, "triangle": 12099, "dresses": 15402, "##urning": 24049, "Worship": 27978, "hit": 1855, "03": 5347, "1867": 6988, "##\u0679": 28500, "Bomber": 20707, "factors": 5320, "routine": 9285, "OBE": 16611, "##\u1d58": 28622, "Nationals": 16101, "##s\u0142aw": 24445, "implementing": 16381, "Seine": 19461, "Orleans": 5705, "attested": 20000, "##jid": 26151, "##AA": 11189, "Specialist": 25607, "My": 1422, "transmitter": 11991, "##vel": 12559, "winding": 14042, "##ways": 8520, "##rell": 13458, "[unused3]": 3, "sang": 6407, "prosecuted": 24004, "but": 1133, "separately": 10380, "Final": 3788, "musician": 4933, "more": 1167, "Britannia": 27907, "betray": 23240, "Paso": 19234, "declaring": 14442, "##nous": 23901, "##enko": 19177, "lips": 2089, "Carmen": 11481, "Nikola": 28010, "NDP": 24245, "whereby": 13949, "entrepreneur": 12035, "manuscripts": 11032, "##yers": 20835, "Project": 4042, "can": 1169, "##feld": 7355, "blanket": 8560, "bumper": 26035, "Ha": 11679, "prospect": 11870, "##4": 1527, "Jan": 4945, "##18": 15292, "tapes": 16200, "##uard": 21320, "Secondary": 7934, "role": 1648, "demonstrating": 15107, "\u0162": 324, "Ortiz": 21922, "Amazing": 16035, "Pentagon": 25122, "\u6c34": 1048, "seller": 18275, "outbreak": 8010, "##bas": 16531, "Poetry": 9721, "girls": 2636, "##\u0152": 28240, "##lax": 22731, "roads": 4744, "piercing": 15659, "sinking": 10464, "Hawke": 28064, "robbed": 22330, "smiled": 2387, "immigration": 9027, "pulsing": 26069, "##\u1f41": 28672, "Shreveport": 26565, "Phillies": 16620, "Doris": 16434, "Cycling": 18934, "Qualifier": 15408, "Case": 9060, "Albert": 3986, "argued": 4491, "Region": 4171, "suburb": 7144, "enzymes": 17664, "##rkin": 17687, "Victor": 4622, "frontal": 22172, "##ilitating": 26039, "##quis": 27110, "slightest": 16960, "Watford": 24019, "##lein": 18929, "mean": 1928, "Azerbaijani": 19736, "abbreviation": 25732, "Lincolnshire": 17699, "montane": 24831, "auto": 12365, "diplomatic": 8311, "descends": 26233, "Aerospace": 19417, "##real": 16330, "only": 1178, "someday": 18361, "##rient": 27286, "Piedmont": 20970, "##\u099f": 28550, "positive": 3112, "##ao": 9513, "Crossing": 16188, "running": 1919, "Population": 10858, "gag": 21102, "##\u1da0": 28627, "\u2092": 826, "Spence": 24589, "painted": 4331, "ugly": 10126, "\u0939": 627, "##press": 11135, "bullying": 21619, "heck": 26913, "McKinley": 24610, "##wamy": 27785, "directorial": 24836, "tables": 7072, "Auxiliary": 18102, "immigrated": 18598, "tempered": 26030, "Yorkshire": 6426, "studying": 5076, "Blackpool": 18664, "##JP": 25141, "Pet": 25993, "trophies": 26530, "plans": 2714, "thoroughly": 12678, "translates": 17391, "destruction": 5915, "Public": 2710, "\u017d": 338, "stage": 2016, "commuter": 17397, "awkwardly": 20714, "throbbing": 18767, "sympathy": 12775, "dating": 4676, "Jennifer": 7184, "monastic": 19742, "Chocolate": 22011, "marred": 27767, "Ronnie": 11715, "Genoa": 16745, "##egan": 18886, "Kid": 9847, "Oceania": 22537, "prostitutes": 23779, "shark": 15623, "variables": 10986, "Browne": 15711, "1794": 13506, "##iard": 18421, "##\u1f78": 28676, "##\u00e7aise": 20952, "Prince": 2558, "killed": 1841, "##hua": 12491, "Mike": 2639, "Stockholm": 8583, "killing": 3646, "tasted": 12876, "borough": 7833, "##xia": 19767, "damn": 4477, "Indiana": 4456, "footsteps": 10139, "Activities": 21966, "##lded": 15414, "traits": 13474, "daring": 17402, "newscast": 22741, "node": 14372, "Author": 14593, "##ame": 16470, "Debbie": 17431, "Patton": 19451, "test": 2774, "##nado": 27493, "McLaren": 20256, "sponsors": 13942, "SSR": 22916, "awhile": 21985, "exterior": 8786, "burials": 27111, "##sham": 20241, "comment": 7368, "##wned": 22071, "thinks": 6191, "resort": 8037, "genuine": 10416, "Milk": 18165, "Session": 18012, "Circus": 14537, "2017": 1504, "##ders": 10097, "brakes": 14656, "Emanuel": 23271, "communications": 6678, "Zack": 14064, "##\u30e5": 28860, "dwell": 26812, "##iss": 14788, "dove": 15811, "desperate": 7127, "algorithms": 14975, "320": 14116, "comrades": 22506, "danger": 5170, "Barber": 16785, "Soci\u00e9t\u00e9": 22290, "##\u017e": 28261, "Lille": 25411, "speaks": 8917, "Mackay": 21741, "Gerhard": 23118, "\u2666": 879, "swelled": 24201, "##lasp": 25552, "##mous": 15852, "Cale": 24404, "symmetrical": 26795, "ferry": 9452, "##dit": 17903, "Uganda": 9831, "barge": 24237, "remorse": 27502, "heat": 3208, "burden": 11904, "punished": 14897, "Specifically": 21325, "Cedar": 14157, "\u0f58": 690, "Lil": 14138, "##fe": 8124, "smirk": 15861, "Schumacher": 24656, "[unused27]": 27, "sts": 9912, "Automatic": 24842, "##onic": 13207, "WC": 16857, "populations": 6623, "850": 16577, "differential": 12630, "accompany": 12910, "Allies": 14254, "HP": 18444, "biographer": 19382, "##\u0632": 28483, "generals": 14729, "ensured": 17349, "genocide": 19643, "Commercial": 10472, "rig": 25462, "pursuits": 27305, "Person": 19783, "betrayal": 16793, "before": 1196, "Palmer": 8450, "bonded": 23781, "##\u02e3": 28309, "Fuji": 23219, "420": 18650, "##ball": 5892, "forts": 17725, "\u00b4": 215, "info": 23992, "Vin": 25354, "Ke": 26835, "##lists": 18286, "Exempt": 19861, "Musicians": 24108, "commissioning": 26239, "present": 1675, "extends": 8559, "scorer": 11766, "bedside": 21685, "Thirty": 10868, "Madeleine": 21096, "##ife": 24603, "\u041a": 457, "lived": 2077, "##lice": 11815, "Spider": 8454, "climbs": 20782, "quartz": 26747, "##AB": 19985, "injustice": 26991, "conservative": 6588, "##nine": 20677, "Matrix": 25178, "Classic": 6667, "##cens": 17248, "##ural": 12602, "\u5317": 993, "##\u09c1": 28569, "deposed": 19866, "dimension": 11025, "Norwich": 12867, "teach": 6215, "Hurling": 16842, "##nding": 17038, "##liga": 10811, "worms": 23357, "feared": 8253, "\u30c9": 954, "dolls": 22084, "##utt": 25131, "##ngled": 25675, "sleeping": 5575, "##sef": 21762, "removes": 22391, "Fashion": 13215, "##lins": 17828, "capturing": 12203, "\u0129": 297, "\u05b4": 528, "cadets": 22943, "Hung": 26157, "continuity": 15126, "Leon": 8393, "accession": 19727, "##riot": 23326, "##lights": 13231, "##fra": 27476, "##dices": 28092, "paying": 6573, "##oted": 21493, "##pers": 6206, "wounds": 8503, "composers": 11146, "Sterling": 12319, "seizure": 20752, "Antrim": 27117, "botanist": 18902, "control": 1654, "Rear": 15053, "Mayo": 15423, "##lder": 16184, "##\u0219": 24158, "excavated": 16120, "fucking": 8750, "##mail": 14746, "Teen": 15948, "Jurassic": 21834, "##yric": 23710, "##\u3057": 28797, "Gladstone": 24068, "Freeway": 23596, "##0": 1568, "bothered": 11352, "Roxy": 26507, "fastened": 27052, "Cy": 27688, "continue": 2760, "noble": 8604, "Kings": 6560, "shooting": 4598, "Cycle": 19991, "Reggie": 19343, "Pre": 11689, "scar": 14161, "1790": 13728, "blur": 17283, "perhaps": 3229, "Mat": 25702, "Billy": 4224, "birds": 4939, "beautiful": 2712, "hatred": 11571, "canoe": 21291, "##iba": 26648, "\u041f": 462, "yeast": 25693, "Georgia": 3260, "##sive": 8788, "\u30c6": 951, "Coach": 6522, "during": 1219, "##ieri": 21328, "Credit": 14032, "dared": 15983, "led": 1521, "Tell": 4630, "vinyl": 9744, "Fourth": 7652, "221": 21319, "Salvador": 10479, "color": 2942, "metabolism": 20443, "\u09cb": 668, "##ately": 16310, "reasonably": 17517, "Throughout": 7092, "hunter": 11151, "administrator": 11065, "specially": 12493, "Meridian": 27654, "tram": 14172, "catalyst": 20546, "##ycle": 21172, "\u793e": 1063, "munitions": 27682, "deities": 19018, "missionaries": 12799, "maintained": 4441, "water": 1447, "\u0110": 287, "Bowl": 5308, "affairs": 5707, "##bling": 6647, "Jeffrey": 10708, "denial": 16926, "Mutual": 22969, "Wichita": 20124, "populous": 22608, "valued": 11165, "\u099f": 647, "Diego": 4494, "degree": 2178, "newspaper": 3054, "purely": 12098, "Proto": 22388, "lyrics": 4017, "rue": 27131, "drained": 11094, "Car": 8185, "Sword": 14059, "##ively": 13517, "##iza": 23228, "training": 2013, "device": 4442, "glances": 13363, "##race": 27510, "##ER": 9637, "Taking": 9251, "sincere": 19967, "suites": 26683, "victory": 2681, "turret": 15781, "##rin": 4854, "appearance": 2468, "##fen": 13488, "##quist": 19854, "Handicap": 25597, "pat": 26227, "beard": 12832, "Stefano": 21802, "kept": 2023, "seemingly": 9321, "appropriate": 5806, "##ciation": 15253, "Primera": 15814, "Catch": 25079, "anxiety": 10507, "productions": 7481, "Velvet": 21499, "##thal": 17939, "partly": 6146, "Tara": 10235, "Apple": 7302, "January": 1356, "McGregor": 25812, "cursed": 11118, "Patrick": 3938, "reacted": 15510, "clubhouse": 27973, "volumes": 6357, "calming": 27047, "Virgin": 6567, "##arma": 24275, "attacked": 3623, "funeral": 6594, "classified": 5667, "und": 5576, "premiered": 5281, "est": 12890, "limited": 2609, "LDS": 18966, "right": 1268, "Greater": 6752, "##ceptor": 25979, "mph": 4955, "scripts": 15690, "napkin": 22783, "Sydney": 3122, "smoking": 9987, "Turkey": 4439, "##udge": 17717, "saying": 2157, "GM": 14748, "leased": 12222, "experimented": 22988, "##ben": 9672, "Friend": 13058, "##\u0449": 28411, "##raj": 18663, "recording": 2730, "##\u05b0": 28437, "##eller": 13703, "southwest": 5090, "\u00fa": 272, "Martinez": 16247, "\u03b9": 426, "##ret": 8127, "infrastructure": 6557, "robin": 16763, "##vey": 13312, "bring": 2498, "donors": 20023, "##static": 27372, "Justin": 6193, "poets": 11587, "Jordan": 4421, "Bar": 6523, "##rva": 13461, "Statistical": 12121, "Lok": 14444, "Zurich": 16142, "view": 2458, "imaging": 14377, "idle": 24530, "##light": 4568, "Everett": 15896, "moments": 4899, "Victoria": 3006, "settlement": 3433, "server": 9770, "For": 1370, "Coliseum": 20947, "VIP": 24425, "##dridge": 23760, "protests": 7853, "##ists": 3681, "millimetres": 13721, "Mountain": 3757, "oval": 13102, "vegetables": 11872, "##aria": 11315, "tobacco": 10468, "pumping": 15486, "Gallagher": 18497, "databases": 19908, "reminding": 17235, "titular": 17590, "Avery": 12274, "Contact": 24367, "Madras": 13302, "##grade": 24633, "##rns": 20163, "##\u5c0f": 28912, "Charter": 11171, "resolution": 6021, "cheek": 4310, "Biblical": 16492, "dried": 9490, "##\u05b8": 28442, "##ature": 17337, "Vikings": 13854, "screwed": 15020, "##alaya": 27399, "##heim": 6797, "Palace": 5130, "##sors": 25481, "feasible": 25667, "Aero": 23877, "robbery": 15522, "cape": 23546, "stove": 18362, "##jak": 24333, "freely": 10297, "duke": 16093, "Daniel": 2979, "episodes": 3426, "consensus": 10923, "famously": 20025, "##\u09b9": 28564, "Damon": 11337, "Custom": 25456, "suggesting": 8783, "generator": 14622, "brake": 15042, "[unused80]": 80, "designers": 12297, "mature": 9881, "Irwin": 18819, "405": 26904, "ZIP": 26248, "ethanol": 27236, "Combined": 16544, "Happiness": 25410, "benefit": 5257, "embraced": 14891, "Similar": 12250, "1971": 2507, "##post": 21341, "antibodies": 26491, "assemblies": 24798, "Aragon": 19493, "Irving": 12581, "crime": 3755, "undercover": 20486, "bare": 6038, "\u0417": 455, "##hir": 14518, "distortion": 25856, "horizontally": 26126, "Poker": 25268, "derby": 25851, "Fremantle": 22231, "##bur": 19364, "stop": 1831, "fumbled": 21909, "provision": 9348, "VP": 23659, "Wen": 23158, "approval": 5684, "need": 1444, "toxicity": 25954, "##reaves": 24439, "Steele": 13083, "serving": 2688, "Jaenelle": 22755, "1957": 3034, "Movies": 19318, "Echo": 12940, "\u0baf": 675, "##la": 1742, "Democracy": 12470, "mediated": 22060, "1749": 27828, "Britain": 2855, "million": 1550, "Indian": 1890, "##bury": 4109, "attempt": 2661, "##500": 22682, "##rue": 26930, "spot": 3205, "##quencing": 27276, "Legends": 15704, "##elles": 18840, "##ff": 3101, "stung": 21777, "Ambassador": 8397, "needing": 12038, "Tom": 2545, "\u0163": 325, "Melissa": 9350, "Christi": 23628, "Cunningham": 14055, "now": 1208, "Mariners": 21652, "Raiders": 12317, "southwestern": 10231, "Month": 17545, "contaminated": 21636, "numerical": 18294, "groom": 23799, "##eni": 21462, "tests": 5715, "##cano": 17519, "thriving": 22522, "DS": 18448, "##\u016d": 28251, "Plays": 23625, "rejects": 22961, "township": 5142, "##but": 16442, "##asis": 14229, "##lava": 24330, "deception": 22551, "Canterbury": 9763, "Fiji": 11490, "Alba": 24005, "closure": 8354, "##bed": 4774, "shall": 4103, "translation": 5179, "\u22c5": 868, "pushed": 2873, "Flint": 17741, "packing": 16360, "[unused92]": 92, "##riya": 16383, "Newark": 13164, "punish": 17912, "hay": 20433, "W": 160, "They": 1220, "pre": 3073, "ensure": 4989, "##\u0129": 28227, "Carnival": 16902, "abducted": 22586, "##ces": 7723, "comparatively": 22673, "Can": 2825, "legitimate": 11582, "explore": 8664, "##xton": 14933, "510": 26177, "\u039d": 405, "classic": 5263, "Basque": 14577, "loneliness": 24921, "baseball": 3866, "##ide": 3269, "Daryl": 25026, "render": 19566, "m\u00b2": 6450, "Son": 6913, "stems": 12878, "Celeste": 24966, "Wiley": 20516, "\u0679": 597, "manufacturing": 5863, "sobbing": 22568, "SBS": 23798, "##where": 15839, "firms": 9780, "ISIL": 21388, "##sar": 9724, "Daniels": 13549, "championships": 6430, "##bolt": 24850, "babe": 17943, "Italy": 2413, "##\u0175": 28255, "bother": 8255, "##ogue": 18597, "##copic": 22258, "Confederacy": 21885, "jealous": 10282, "um": 15276, "were": 1127, "##oom": 23302, "Jude": 12776, "darted": 14568, "labels": 11080, "wisdom": 12304, "##rass": 19326, "indicates": 6653, "DNA": 5394, "Rs": 19003, "hitter": 20836, "termed": 12201, "Essential": 26768, "located": 1388, "adorable": 27627, "yellow": 3431, "##settled": 23242, "Marianne": 21659, "preacher": 18154, "storylines": 25869, "Labrador": 20255, "Eduardo": 15521, "supernatural": 12361, "Qi": 24357, "##\u0280": 28286, "larvae": 9923, "definitely": 5397, "Bosnia": 9276, "Greek": 2414, "1911": 4383, "clock": 4705, "##ully": 16125, "website": 3265, "Jenks": 15855, "[unused9]": 9, "##esan": 27376, "##azed": 27625, "stretch": 7461, "##arel": 24971, "impressive": 7757, "Warrington": 25687, "##nis": 7221, "precious": 9692, "freed": 11485, "hardly": 6374, "closed": 1804, "ranged": 16859, "Roche": 22640, "Full": 8896, "1956": 2990, "##rippled": 27448, "carriage": 9362, "fancy": 13305, "##Pad": 24300, "distinguishing": 23902, "##\u0917": 28511, "Resolution": 15338, "##vations": 22553, "pull": 3373, "##osa": 9275, "routinely": 21871, "pivotal": 22927, "Bari": 25788, "technologies": 7951, "##omo": 18445, "##llah": 17734, "[PAD]": 0, "dots": 16672, "Fuller": 14399, "striker": 13074, "##bu": 7925, "Olsen": 20637, "task": 4579, "graduating": 6282, "Northwest": 8358, "Chennai": 12451, "reactive": 26844, "ropes": 16024, "Toledo": 13459, "XML": 24868, "##grapher": 14334, "Robbins": 19462, "Cola": 17492, "##stars": 26932, "41st": 27203, "eye": 2552, "plaster": 17310, "##osis": 11776, "##\u00ef": 28203, "##erty": 17845, "\u1d62": 720, "Hardy": 10092, "attached": 4309, "##gate": 4948, "Manhattan": 6545, "Libby": 21337, "Nearly": 16992, "clans": 18807, "dwellings": 18495, "alpha": 11164, "rubbing": 10365, "325": 21380, "Callie": 21894, "Mustang": 21064, "Meredith": 10534, "burn": 6790, "wheat": 11773, "##eman": 12437, "##mian": 19111, "Adele": 20322, "Memphis": 9519, "rubble": 19468, "abandonment": 25356, "Southwestern": 22557, "Noel": 12309, "Sale": 21862, "slide": 7253, "susceptible": 19464, "apples": 22888, "Telephone": 22580, "Mai": 17551, "Xi": 20802, "Drugs": 26500, "##\u03bb": 28348, "Yoga": 25035, "honorary": 7316, "Tirana": 27759, "\u00d8": 241, "Weimar": 22688, "Unity": 14996, "IATA": 9595, "River": 1595, "firearm": 27356, "return": 1862, "tan": 15925, "forwards": 22453, "snake": 8925, "realised": 11326, "worked": 1589, "renovated": 10564, "##rito": 20376, "settling": 9943, "trash": 13151, "##del": 6738, "##teau": 17871, "##fication": 11531, "player": 1591, "Sign": 20979, "##\u30c7": 28845, "overall": 2905, "##ola": 5326, "##houses": 15246, "victories": 9056, "##gation": 10716, "mechanisms": 10748, "##dha": 14016, "nevertheless": 12341, "##ppa": 13059, "kilometers": 6832, "##gratory": 24521, "Ontario": 3717, "discretion": 21435, "##yer": 7904, "##postle": 21953, "##digo": 22039, "Oxford": 3500, "Ho": 9800, "##ello": 13323, "touches": 13193, "entrance": 3448, "internship": 27265, "divisions": 5760, "Herr": 26497, "Nanjing": 23761, "##vard": 24698, "Suicide": 25067, "\u2091": 825, "purpose": 3007, "attitude": 7533, "Associated": 12835, "Label": 20943, "downfall": 27002, "##\u0303": 28311, "lords": 17499, "##scent": 23193, "##ime": 10453, "modify": 22015, "##OH": 23293, "##HF": 13561, "marble": 8004, "renewable": 17216, "##oam": 23270, "stench": 24218, "750": 9416, "adopting": 17827, "spherical": 21279, "sprawled": 23671, "strapped": 19688, "##sfield": 17386, "Petra": 23424, "Thom": 24484, "neighborhood": 4532, "dancing": 5923, "smoothly": 16193, "candidates": 4765, "##phi": 27008, "diamond": 9883, "sixth": 3971, "Wise": 16089, "##onte": 22994, "translucent": 26043, "Grades": 26439, "##ligent": 27518, "##\u3066": 28804, "##\u2079": 28709, "##lish": 10550, "\u3002": 886, "##mus": 6308, "snatched": 14779, "##hiko": 24617, "Psychological": 24797, "clients": 7550, "Doctor": 4157, "Qu\u00e9bec": 19833, "Shelby": 16080, "pilgrimage": 17385, "\u2010": 779, "Day": 2295, "##ur": 2149, "peaked": 6009, "binary": 13480, "stall": 15523, "Kansas": 4312, "##eas": 14517, "instance": 5374, "1893": 5843, "##ovi\u0107": 10247, "Cardinals": 9951, "airplay": 20659, "existence": 3796, "##nh": 15624, "truth": 3062, "stature": 23432, "chest": 2229, "applicable": 13036, "praise": 9010, "##zac": 25616, "##\u03a4": 28330, "Pilot": 14384, "cardboard": 22823, "##economic": 25726, "Main": 4304, "Legislature": 10461, "##different": 27537, "CBS": 5957, "Eighth": 17561, "reformed": 13350, "reptiles": 25440, "occur": 4467, "Suit": 27331, "Lords": 9880, "subunit": 27555, "Cultural": 6651, "signaling": 16085, "Wes": 14784, "Calder": 21056, "betting": 21891, "##ote": 11860, "printing": 8455, "crucial": 10268, "##me": 3263, "Make": 7102, "authorised": 21812, "##rings": 23961, "##tres": 20357, "experimental": 6700, "1746": 27594, "uncredited": 7750, "##deacon": 22693, "Ultimately": 16266, "glasses": 7537, "##\u300a": 28780, "##k": 1377, "Orient": 20032, "fled": 6192, "east": 1746, "Wings": 11237, "##neer": 25100, "\u2606": 874, "\u03a6": 410, "smiles": 8402, "electrified": 19746, "interiors": 25556, "fence": 8617, "##occo": 26108, "\u0159": 317, "Still": 4209, "##nz": 19411, "unavailable": 22254, "##china": 22952, "rotating": 14362, "##nex": 24321, "dough": 28075, "Been": 18511, "emblem": 19423, "Uttar": 15670, "economies": 21553, "modelled": 26550, "locking": 16348, "Counter": 23064, "papers": 4580, "##group": 16016, "solemn": 22752, "\u221e": 855, "##dson": 21369, "##nds": 15613, "##yed": 23080, "best": 1436, "Tropical": 13536, "##tor": 2772, "Nonetheless": 16097, "Pasha": 15392, "graphics": 9043, "##yssa": 18467, "##rr": 11096, "##hogany": 26724, "noted": 2382, "\u2217": 852, "assurance": 23296, "##\u5bae": 28910, "attendant": 19389, "statutory": 17302, "brigadier": 23965, "delegate": 13715, "mountains": 5000, "outdoor": 7814, "lodge": 14433, "Clive": 15295, "##nny": 15863, "##ilizer": 25833, "assigned": 3346, "##OX": 24569, "Julian": 5916, "1761": 23514, "recognizing": 17344, "Kilda": 25168, "Marquette": 27228, "Sony": 8028, "railing": 16690, "Mark": 2392, "Louie": 18676, "supplying": 19229, "##val": 7501, "removal": 8116, "75": 3453, "Chair": 7507, "parties": 3512, "##ooby": 27404, "Urban": 6972, "##witz": 15648, "laden": 23164, "accumulation": 23168, "Cao": 13872, "suspect": 8095, "##chan": 18546, "##rsch": 20627, "Fathers": 23010, "ultra": 18737, "scarcely": 22464, "fused": 21859, "##\u05b5": 28439, "##bourne": 10526, "Lucan": 22776, "##aged": 15841, "hopeless": 24858, "tuition": 17185, "Merrill": 17247, "##ndon": 17996, "Charlie": 4117, "introduce": 8698, "match": 1801, "Conner": 18938, "230": 11866, "Jules": 11011, "##aia": 20991, "\u0633": 577, "congregation": 9201, "identification": 9117, "southbound": 23285, "1748": 27488, "presidential": 5200, "Jesse": 7133, "##res": 4894, "##NS": 12412, "unwilling": 17026, "LL": 12427, "##gs": 5700, "##pressing": 24956, "335": 27461, "organisation": 5632, "domination": 21048, "Bloom": 19169, "Crete": 21070, "Legal": 10800, "##cey": 18865, "Bury": 19390, "##haus": 13842, "Cooperation": 17612, "commemorated": 20858, "##tant": 17071, "Mixing": 21796, "disturb": 26886, "attire": 22604, "If": 1409, "Legion": 8890, "enraged": 23247, "Times": 2706, "rings": 8374, "publications": 5873, "##sbury": 14959, "sub": 4841, "\u306f": 916, "haunting": 24844, "manager": 2618, "##\u039b": 28324, "sharp": 4295, "shades": 16327, "perform": 3870, "USL": 24927, "bar": 2927, "##water": 4669, "historic": 3432, "consumed": 10133, "shrub": 16965, "naked": 6222, "##fi": 8702, "exchanged": 10476, "cute": 10509, "##iggs": 28119, "##\u043a": 28399, "averages": 22284, "##rter": 27618, "seem": 3166, "##\u05d2": 28447, "Prefecture": 8197, "del": 3687, "at": 1120, "slip": 7324, "early": 1346, "discrimination": 9480, "expedition": 6084, "Worcester": 12710, "Julius": 10315, "##cological": 23388, "belong": 6772, "##ocytes": 26431, "Gonz\u00e1lez": 13375, "Uruguayan": 26191, "##tics": 7376, "expenses": 11928, "exists": 5903, "143": 17025, "canon": 14917, "##hiro": 17427, "\u010c": 284, "1881": 6411, "##dom": 9277, "##aft": 17495, "##olt": 17772, "Seasons": 19939, "##3": 1495, "M": 150, "branching": 27021, "##bar": 6824, "bladder": 28083, "Images": 21496, "370": 17455, "##tide": 23767, "transparency": 21595, "environmental": 4801, "Ashes": 23853, "Music": 1953, "Kerman": 27671, "##tors": 5067, "delicate": 10141, "##look": 21163, "women": 1535, "Birmingham": 5836, "rounds": 5720, "announcing": 14563, "diesel": 8887, "construction": 2058, "##nail": 26060, "##\u21d2": 28743, "cramped": 25484, "adaptation": 6350, "groups": 2114, "sections": 4886, "##gged": 12165, "Spike": 12901, "pillow": 10352, "chartered": 17064, "apartheid": 23062, "1690": 27899, "##bage": 22070, "Jr": 3108, "##watch": 21200, "Audience": 23590, "sweep": 12245, "brand": 4097, "##rol": 13166, "##paper": 26311, "##\u540c": 28894, "selection": 4557, "stories": 2801, "York": 1365, "Talk": 8768, "##cious": 9589, "coil": 20614, "innocent": 7386, "Benedictine": 23494, "unlawful": 26079, "geared": 26870, "starvation": 26389, "##them": 25962, "##marks": 22328, "Buck": 11505, "##\u014f": 28238, "neurons": 16993, "##\u028a": 28290, "Using": 7993, "172": 19639, "##\u09c7": 28570, "struck": 4168, "Turn": 12128, "Reilly": 14347, "Teddy": 12684, "week": 1989, "pencil": 16372, "Egyptians": 26145, "Orlando": 9906, "care": 1920, "skill": 7864, "clever": 13336, "64": 3324, "Hawaii": 6826, "client": 7230, "stance": 11105, "swell": 21835, "Special": 3139, "Lynch": 11764, "supervised": 14199, "##PL": 27258, "\u0927": 614, "rabbit": 16225, "##play": 11044, "Chief": 2534, "assassin": 15467, "rounded": 7982, "##let": 5765, "Penelope": 21129, "shelters": 18833, "neighboring": 8480, "noun": 16432, "##\u0395": 28319, "Nottinghamshire": 21942, "Strait": 12925, "duration": 9355, "Pierre": 4855, "##mand": 20993, "taste": 5080, "shafts": 22970, "Retrieved": 4996, "Amiga": 27424, "understanding": 4287, "complaints": 11344, "##listic": 15105, "prospects": 19743, "Robert": 1823, "##ronological": 25531, "important": 1696, "##udi": 17294, "rough": 5902, "Joyce": 11882, "protecting": 8547, "##ssent": 26614, "Faso": 25408, "##weet": 24887, "##FT": 26321, "modelling": 23741, "##oir": 24554, "##linear": 24984, "educate": 18584, "##biotic": 22400, "Route": 3320, "##chin": 12285, "##rre": 11604, "Latvian": 15332, "##stown": 13594, "dates": 4595, "Core": 15052, "Heart": 4641, "##uno": 26761, "##rity": 12298, "Thornton": 15260, "Blade": 17360, "Survival": 26849, "slots": 22223, "municipalities": 7473, "endorsement": 22843, "Hodges": 21539, "##\u4ec1": 28880, "selections": 19674, "aim": 6457, "Ottawa": 7711, "lasting": 9810, "pretending": 12714, "leaving": 2128, "J": 147, "Beethoven": 16316, "1979": 2333, "Baptiste": 18529, "\u0926": 613, "##uild": 19118, "##icidal": 27804, "[unused10]": 10, "Niagara": 16351, "pairing": 25942, "Prasad": 19039, "##\u01b0": 28265, "buddy": 16723, "defend": 6472, "##elier": 26041, "hardcore": 16883, "1942": 2889, "Anton": 9809, "Guangzhou": 20272, "convent": 13727, "trait": 20323, "disk": 10437, "frankly": 27642, "Archibald": 16849, "sprung": 25242, "dug": 8423, "Madonna": 11324, "##dified": 22293, "##ex": 11708, "bass": 2753, "outright": 14484, "##ary": 3113, "##ic": 1596, "mug": 15761, "various": 1672, "Vice": 4070, "Disease": 20012, "##ncies": 9885, "\u1eef": 764, "man": 1299, "got": 1400, "Silicon": 24264, "\u2228": 857, "##itz": 8976, "Treasurer": 15099, "instituted": 15833, "Exploration": 27734, "affiliation": 13494, "Mohan": 20165, "eyed": 7074, "Woody": 17709, "Baltimore": 5553, "humanity": 9011, "Elijah": 14581, "coloured": 12026, "##holding": 20139, "Ernest": 8075, "##awed": 21449, "Greene": 10983, "flock": 24117, "Adolf": 12670, "unlimited": 22921, "traditions": 7181, "##verted": 17534, "obey": 17088, "\u092d": 618, "Mask": 23938, "##ahu": 23222, "reported": 2103, "Stella": 12126, "##wi": 10073, "Charlton": 19155, "##rat": 7625, "Bonnie": 12414, "Sam": 2687, "Fulton": 18196, "telescope": 16737, "##kaya": 23898, "Miracle": 16904, "Reference": 19714, "pinning": 25970, "##dial": 27565, "Moscow": 4116, "Cruz": 7665, "superintendent": 15778, "below": 2071, "der": 4167, "Gideon": 12310, "##shin": 18968, "packet": 17745, "##regation": 22998, "##ximal": 23984, "emotional": 6438, "Milano": 23933, "##iz": 9368, "shade": 10356, "Louisa": 16649, "bleak": 26481, "##tyn": 27156, "Facility": 19341, "coldly": 28048, "selfish": 15589, "##icles": 26407, "Members": 7667, "rise": 3606, "writing": 2269, "discusses": 16900, "astronomer": 17150, "spent": 2097, "Loch": 18207, "##ience": 16457, "Leinster": 16619, "office": 1701, "##ien": 8584, "oil": 2949, "obvious": 5119, "##\u201e": 28693, "offs": 12822, "shelf": 12202, "Reuben": 18522, "tones": 13647, "chooses": 16826, "resurrected": 26529, "Alain": 16552, "hallway": 6219, "clade": 24904, "Honduras": 14950, "Constitution": 5317, "steamer": 20472, "##gat": 25524, "activate": 23162, "Apostolic": 14220, "slowed": 9551, "lack": 2960, "1934": 3729, "##agger": 28100, "colonization": 23204, "Lamar": 21712, "wonderful": 7310, "[unused38]": 38, "cross": 2771, "efficiency": 8096, "Luftwaffe": 19027, "##tep": 21747, "mercenaries": 22222, "##ulon": 23643, "represents": 5149, "##church": 26037, "##36": 22997, "Leroy": 25335, "FC": 3604, "estates": 10015, "grief": 10283, "wounded": 4670, "responding": 16322, "##hart": 11429, "##ghter": 20781, "studios": 8522, ".": 119, "81": 5615, "pledged": 18215, "asking": 4107, "Pradesh": 7530, "souls": 11191, "Daughter": 16039, "Tennis": 9968, "##ught": 11266, "indicator": 19738, "##enham": 22014, "styling": 23809, "##son": 2142, "Weapons": 20263, "patient": 5351, "paperback": 16885, "157": 18611, "clicked": 14376, "##ume": 15447, "Collin": 24565, "reverse": 7936, "##\u2077": 28707, "\u306e": 915, "currently": 1971, "##structure": 25198, "councillor": 16517, "destroys": 22955, "Coast": 3331, "undergoing": 15819, "ashamed": 16155, "\u30ab": 937, "vendors": 19086, "\u5973": 1013, "##\u021b": 28273, "Palestinians": 23755, "mayor": 4398, "##vocation": 17105, "compatible": 12173, "Secret": 7013, "Cowboys": 13009, "##lya": 25928, "motel": 18976, "##\u3061": 28802, "Nash": 10544, "behavioral": 18560, "reproduction": 16600, "ratio": 6022, "##rika": 21513, "Gala": 26376, "refers": 4431, "idea": 1911, "##tle": 5034, "ho": 16358, "Ein": 23922, "##zman": 27277, "fortune": 8977, "artifact": 24690, "reliable": 10682, "##nbridge": 24416, "##\u05e9": 28467, "##bolic": 21022, "surgeon": 10690, "##orse": 18649, "##shot": 21879, "Match": 11492, "1905": 4761, "Trent": 7524, "Paz": 20136, "Ignacio": 25713, "fried": 15688, "Summer": 2659, "pendant": 26790, "harp": 19960, "stable": 6111, "Design": 4800, "reddish": 15200, "##eim": 20369, "domain": 5777, "correspond": 18420, "passports": 23047, "components": 5644, "float": 15666, "partners": 6449, "1830": 9200, "##junct": 20327, "revealed": 3090, "##rud": 25980, "path": 3507, "Providence": 11658, "1642": 27015, "Fall": 6760, "sodium": 15059, "hostages": 21832, "Zheng": 23673, "sack": 14204, "At": 1335, "combines": 14215, "depart": 20435, "##pipe": 27871, "Released": 11930, "Georges": 10792, "Denver": 7068, "Photography": 12954, "##rong": 16822, "reality": 3958, "shared": 3416, "subsidiary": 7049, "Wendy": 13013, "civilians": 9112, "Stage": 6160, "Douglas": 4402, "abnormal": 22832, "Sonia": 17450, "purchased": 3310, "Pius": 14990, "\u53f2": 998, "soon": 1770, "##lanche": 27474, "##igor": 25925, "Avalon": 20613, "Point": 4221, "August": 1360, "trusts": 25802, "medieval": 5908, "##jit": 23324, "##ocks": 18347, "eagle": 13387, "sq": 4816, "rite": 24332, "President": 1697, "fastest": 7901, "Nah": 24883, "Rita": 11821, "Hobart": 14496, "wards": 12551, "Qualifying": 19720, "commemorative": 22180, "Narayan": 27520, "calendar": 8729, "calculations": 17891, "##\u2190": 28738, "haired": 10742, "scarred": 25201, "Pleasure": 23786, "##hur": 26033, "dead": 2044, "##heads": 12970, "Lynn": 9086, "Shoes": 27564, "\u00de": 244, "ached": 15808, "Copper": 20657, "fell": 2204, "creatures": 7207, "Poor": 11767, "soccer": 5862, "Nielsen": 13491, "bombing": 8602, "context": 5618, "sometime": 9961, "champagne": 17673, "##dman": 22535, "Continental": 9211, "favors": 24208, "##\u0431": 28393, "##\u00bf": 28178, "jerk": 12935, "loses": 12667, "##us": 1361, "shops": 7116, "prey": 8368, "intercourse": 26864, "sparkling": 18439, "Ghana": 9446, "Bram": 22924, "bait": 21012, "anticipation": 11468, "Catalan": 14694, "##gade": 24003, "##xen": 25926, "Immediately": 13301, "SV": 21479, "acquisition": 7626, "##dez": 15125, "Scarlet": 17137, "##om": 4165, "##ette": 6347, "Martian": 23194, "fighters": 7705, "##leaf": 21407, "Electronics": 13983, "diminished": 17017, "extracted": 16939, "sediment": 22122, "option": 5146, "populace": 25087, "populated": 10240, "##\u00e9es": 21272, "recognition": 4453, "##raith": 21980, "M1": 26528, "##den": 2883, "sect": 21354, "voters": 7179, "Drawing": 20753, "paint": 6628, "Tao": 25225, "remember": 2676, "occurs": 4365, "rating": 5261, "career": 1578, "Zoe": 11929, "##rae": 20439, "gasoline": 15117, "issue": 2486, "violating": 22128, "nominal": 16251, "n\u00e9e": 7658, "embarked": 11322, "##\u042d": 28390, "Alpha": 8461, "Buster": 21526, "migrants": 18677, "Marcel": 13737, "glare": 11043, "##tland": 11910, "ankle": 10845, "remind": 11484, "set": 1383, "Deacon": 23452, "\u05d1": 536, "\uff1a": 1102, "consequence": 9547, "gritted": 18512, "marshes": 23832, "Lake": 2161, "Tobago": 18411, "seventy": 12911, "Empress": 11672, "##stal": 19760, "surveyor": 25646, "Emilia": 22836, "ARIA": 21356, "domains": 13770, "philosophical": 11388, "prevailed": 21691, "thriller": 11826, "Garrison": 17232, "##chen": 10415, "hopefully": 16121, "pulses": 27631, "filtering": 26299, "##nees": 27075, "troops": 2830, "tallest": 14369, "custody": 9948, "grey": 5583, "provided": 2136, "AD": 5844, "##wall": 9456, "exhibiting": 25988, "##cision": 16073, "##gon": 7528, "rhythms": 21890, "Nov": 14152, "Patti": 25598, "##\u1ea7": 28643, "profile": 6168, "leave": 1817, "##falls": 26907, "Newton": 8102, "radio": 2070, "displacement": 15167, "descending": 16610, "Johnston": 10675, "##num": 12603, "baseman": 19670, "##pruce": 21641, "unitary": 26217, "Clinton": 6652, "invite": 13967, "fragment": 17906, "\u1edd": 757, "##rising": 25443, "Walker": 4575, "##hlete": 25519, "Reginald": 15095, "Giant": 12510, "Webber": 21630, "Training": 5513, "1919": 3688, "\u9f8d": 1087, "putting": 4518, "remembered": 3801, "##vasive": 25007, "##morandum": 22251, "inherit": 26047, "Henley": 22935, "##gering": 27910, "##\u1e63": 28638, "leg": 3420, "##lies": 7875, "##ttes": 20161, "opener": 17622, "auxiliary": 13817, "\u013c": 302, "##qing": 22676, "sexual": 3785, "castle": 3804, "lowest": 6905, "1977": 2449, "Nina": 9394, "presenting": 11124, "lonely": 12494, "Symphony": 6280, "Allie": 18067, "Gracie": 20653, "##mage": 27525, "stained": 9729, "60": 2539, "46": 3993, "lightly": 7863, "##orn": 8456, "privilege": 15641, "allows": 3643, "chances": 9820, "1500": 10204, "\u2032": 797, "##IC": 9741, "##lug": 16693, "licking": 20238, "##ngo": 18255, "Serena": 15138, "unexpectedly": 15484, "nephew": 7502, "##using": 19578, "Apache": 16995, "librarian": 18280, "##yx": 19367, "gasps": 27531, "##\u8fb6": 28966, "##rea": 11811, "hostilities": 19550, "Architectural": 22182, "emerald": 23970, "Syriac": 27095, "orgasm": 14676, "sympathetic": 13493, "lending": 21363, "transition": 6468, "predators": 15334, "##ivation": 16617, "globe": 12868, "princess": 9309, "Real": 5230, "Hans": 6458, "Burn": 16915, "curse": 9188, "objectives": 11350, "blazing": 20013, "##\u0923": 28514, "scheme": 5471, "600": 4372, "handle": 4282, "posting": 15537, "\u2093": 827, "97": 5311, "sells": 16695, "rebel": 10474, "Benson": 12093, "scholars": 5716, "wage": 12634, "pavement": 15823, "trace": 8332, "##tically": 23817, "attracts": 19119, "##bio": 25959, "broadcasting": 6731, "Lot": 19804, "expose": 16479, "wrestler": 11113, "\u1ec3": 747, "Chess": 11503, "##chanted": 21874, "station": 1466, "##iman": 25512, "retained": 5366, "##\u539f": 28889, "##\u00e8ne": 18265, "platinum": 11980, "##linary": 25471, "Cornelius": 18604, "investor": 16321, "weather": 4250, "opportunity": 3767, "substitute": 7359, "tumbled": 19749, "coherent": 21093, "##nist": 22158, "Chain": 19589, "rides": 13863, "expecting": 7805, "Rick": 5512, "##lman": 12151, "@": 137, "favourite": 9122, "Hero": 9390, "interred": 14432, "##\u0baf": 28578, "Sammy": 15064, "##\u2228": 28751, "##ka": 1968, "MG": 22459, "1806": 12681, "Fever": 21416, "wooded": 18524, "Building": 4334, "CBC": 13979, "##alo": 20717, "end": 1322, "##iving": 21877, "cargo": 6527, "##eley": 23814, "Wolverhampton": 21900, "##SB": 19117, "Low": 8274, "belts": 20109, "pistol": 8951, "Op": 9126, "##\u05db": 28455, "##nin": 10430, "cricketer": 9469, "##tism": 15813, "##anus": 20387, "Kurdistan": 26494, "Carlos": 5124, "Bottom": 19984, "novelist": 10050, "Bathurst": 24231, "Universal": 6896, "recipients": 18509, "##\u00fcck": 24116, "##\u0398": 28321, "Study": 8690, "agents": 5789, "##bir": 18710, "\u015a": 318, "Colt": 10717, "Henrietta": 22807, "Peace": 5370, "##ldo": 25791, "respectively": 3569, "Back": 4388, "delivering": 13232, "shook": 2291, "groundbreaking": 27983, "entertained": 23745, "\u03b2": 419, "MA": 9960, "auditions": 27503, "Aleksandr": 26955, "say": 1474, "eastward": 18953, "Wally": 19650, "##actor": 22610, "incorporation": 19542, "Segunda": 21063, "nominees": 21512, "Poland": 2870, "Aziz": 23623, "##hen": 10436, "changed": 2014, "\u0406": 446, "confirm": 12434, "##chev": 21578, "##cer": 14840, "shipped": 12212, "conventions": 14483, "brains": 16570, "Lim": 21551, "\u4e8b": 981, "class": 1705, "[unused62]": 62, "staffed": 23511, "slashed": 26551, "1756": 24816, "Danny": 5595, "##way": 2787, "circled": 15591, "chimney": 20143, "encourages": 17233, "Medical": 3875, "##graphy": 8944, "bonus": 6992, "pilot": 3955, "AL": 18589, "Joanne": 27829, "##TH": 24162, "##\u0427": 28388, "index": 7448, "1854": 8023, "fuck": 9367, "makes": 2228, "Harrison": 6067, "whale": 17757, "agent": 3677, "irritated": 17072, "##PR": 22861, "engagement": 8164, "bridge": 2738, "##27": 24458, "world": 1362, "##\u00edo": 26804, "Rector": 20355, "Total": 8653, "responds": 17550, "grasses": 24567, "ready": 2407, "exposing": 15952, "cyclone": 15202, "consortium": 17619, "Shaking": 25227, "##\u0255": 28277, "##IB": 27954, "##oney": 18066, "politics": 4039, "1913": 4325, "used": 1215, "commercially": 11514, "Ramsey": 15828, "Championships": 2708, "##fied": 8971, "cartoon": 11540, "script": 5444, "##bt": 21238, "Beatles": 11581, "##gth": 27116, "awaited": 21520, "single": 1423, "infants": 20186, "whipped": 12740, "##ming": 5031, "machines": 6555, "##\u00b3": 19763, "Animated": 24238, "\u03be": 431, "midfield": 26599, "X": 161, "Minority": 26495, "incorporate": 13639, "church": 1749, "separates": 20229, "remnant": 22499, "leaning": 6784, "\u062a": 568, "surprising": 11567, "rehabilitation": 14178, "\u4f50": 988, "Country": 3898, "##rcia": 24579, "Harlan": 27287, "explorer": 16171, "He": 1124, "##nitz": 21505, "Jarvis": 23255, "themselves": 2310, "1620": 27241, "Patel": 22545, "Chase": 5870, "Bundesliga": 14814, "##lini": 21472, "Travel": 7938, "manual": 9506, "Adventures": 10174, "Male": 10882, "Indians": 5888, "sums": 22958, "Saint": 2216, "Liam": 7797, "several": 1317, "snorted": 16015, "weddings": 24536, "represented": 2533, "Territory": 7442, "##shirt": 22883, "remainder": 6311, "\u2286": 866, "sustaining": 26081, "Clare": 11148, "##ib": 13292, "review": 3189, "Latin": 2911, "In": 1130, "##gence": 12329, "PA": 8544, "Kyrgyzstan": 25874, "butcher": 26087, "attachment": 15708, "consisting": 4721, "##ras": 7297, "bags": 8483, "##cor": 19248, "parting": 24402, "future": 2174, "##ief": 19436, "wrought": 20533, "notable": 3385, "Ren": 16513, "restructuring": 20841, "Trilogy": 27329, "Shore": 11301, "harmonic": 23650, "##imed": 24733, "##vial": 22319, "Fellow": 6229, "pollution": 11738, "Virginia": 2550, "##ever": 17791, "##\u0151": 28239, "plane": 4261, "poor": 2869, "basin": 8434, "##rist": 12937, "1900": 4337, "Jerry": 5466, "Shine": 22931, "unidentified": 23734, "##HS": 11420, "spelling": 12330, "factory": 4790, "seeds": 8365, "##bred": 26774, "Ambulance": 27114, "##yam": 17485, "Carmichael": 26322, "Alive": 15907, "Lviv": 26681, "##wear": 14719, "Fergus": 23130, "Monroe": 9487, "packaged": 24946, "##fters": 26967, "novelty": 25310, "\u00ce": 236, "toast": 17458, "[unused74]": 74, "##com": 8178, "cent": 9848, "1400": 22612, "elevated": 8208, "##rian": 5476, "Same": 14060, "streak": 9192, "abandon": 11092, "##guard": 12188, "\u00be": 224, "manually": 23465, "Mia": 9103, "Like": 2409, "\u98df": 1084, "Blood": 5657, "308": 27201, "bang": 21260, "Wikipedia": 18920, "presidency": 11223, "PT": 22216, "keeps": 7634, "track": 1854, "surname": 12239, "\u2229": 858, "prisoner": 7396, "generations": 8225, "Pratt": 13528, "pity": 13532, "185": 16183, "##\u0f56": 28592, "Office": 3060, "watch": 2824, "economy": 4190, "symbol": 5961, "Sad": 20572, "authenticity": 24738, "circumstances": 5607, "accordingly": 17472, "splitting": 15601, "Whig": 24159, "##\u039d": 28326, "tags": 25613, "\u00e9tat": 24948, "relocation": 21179, "##fields": 14922, "##mity": 15455, "\u2076": 804, "\u0906": 606, "Malayalam": 13307, "premiere": 6965, "screenwriter": 11625, "media": 2394, "##lizzard": 24002, "Kitchen": 18988, "##rative": 15306, "managers": 11493, "1800": 9558, "gradient": 19848, "Touring": 21908, "\u9ad8": 1086, "fox": 17594, "whisper": 6996, "##vue": 19038, "intellectuals": 19798, "Orchard": 23939, "Berkeley": 7823, "compulsory": 16472, "virus": 7942, "Donnell": 19412, "##upon": 23407, "Collegiate": 14329, "sciences": 8614, "German": 1528, "median": 3151, "##uce": 15776, "##yclic": 24974, "236": 26361, "tools": 5537, "motivated": 13241, "Bath": 10567, "Curling": 23991, "##idian": 27967, "portfolio": 12256, "Bergen": 12889, "##Millan": 22266, "glaring": 17606, "alongside": 3338, "Bella": 12787, "##quel": 15966, "##lum": 7776, "##\u0458": 28420, "215": 18615, "##izations": 20412, "Lie": 15030, "covered": 2262, "clutching": 15571, "disapproval": 23868, "muscles": 6130, "##ptus": 24556, "##abby": 27403, "##IM": 13371, "ecosystems": 23600, "Romania": 5726, "##\u043c": 28401, "\u0443": 494, "Monster": 11701, "lemon": 22782, "##nacht": 27416, "\u2500": 869, "wizard": 16678, "##llie": 14367, "##\u1fe6": 28679, "##taire": 25482, "woods": 6269, "hotter": 26105, "1740": 24028, "yet": 1870, "Alice": 4953, "haunted": 13526, "Library": 3371, "card": 3621, "Romans": 10935, "ballads": 25303, "hosts": 5654, "##uing": 21490, "localities": 22028, "##tured": 23132, "##\u1e24": 28629, "flashlight": 16319, "harsh": 8213, "Examination": 26947, "diver": 23448, "Kingdom": 2325, "longtime": 11448, "musicals": 23924, "##gnate": 21772, "##fty": 27944, "masonry": 20860, "##sign": 19638, "##jutant": 22635, "Aidan": 12834, "##tia": 10691, "1786": 18642, "Rothschild": 21457, "admired": 13092, "Seymour": 13572, "Deborah": 16507, "##jin": 11966, "generous": 12839, "attention": 2209, "Sardinia": 23833, "##ily": 5264, "##\u0649": 28497, "roots": 6176, "lane": 7576, "Environmental": 8019, "##cker": 8638, "##gra": 14867, "\u03a0": 407, "neutral": 8795, "defenses": 14192, "im": 13280, "##adores": 27217, "Trading": 22263, "compensate": 20766, "loudly": 9733, "gatherings": 24246, "sentenced": 6874, "275": 18783, "Garry": 23735, "Tel": 11341, "##mad": 22678, "##ivers": 25105, "##rout": 20885, "mouthed": 22546, "earthquakes": 22555, "##zier": 22815, "Capt": 15914, "##idy": 25382, "Horne": 27285, "inauguration": 20105, "Dutch": 2954, "Austin": 5202, "##6th": 25104, "##ait": 21263, "playoff": 7913, "incentive": 23692, "chocolate": 8888, "formula": 7893, "hurry": 10275, "served": 1462, "tile": 15305, "##ivo": 15435, "1848": 7518, "morale": 22407, "treasures": 24469, "Fellows": 19973, "utilized": 12750, "Product": 22249, "\u00bd": 223, "ingredient": 24799, "##ku": 4786, "toys": 12967, "##ingham": 11524, "vigorously": 24943, "meta": 27154, "tasks": 8249, "##gam": 17634, "forcing": 6524, "gateway": 19154, "Eug\u00e8ne": 26689, "##ritable": 27770, "like": 1176, "Title": 11772, "plus": 4882, "##UI": 22054, "Private": 7219, "derive": 20292, "international": 1835, "winter": 3701, "##dheim": 21934, "##zin": 17817, "##lante": 26093, "shield": 7292, "##politan": 27058, "fix": 8239, "1100": 24450, "concurrently": 18061, "##lut": 25937, "trips": 9185, "patrol": 7489, "plaque": 12592, "masters": 11573, "Alicia": 16914, "##dges": 25477, "programs": 2648, "meets": 5636, "##row": 7596, "Lorenzo": 12662, "##eor": 25690, "ed": 5048, "##bley": 26672, "##lo": 2858, "Angelo": 12622, "##of": 10008, "difference": 3719, "favorites": 25735, "Monty": 19955, "Cannon": 16017, "Miller": 3902, "\u00b7": 218, "carvings": 25888, "Ex": 16409, "##psis": 17990, "quarterfinals": 15388, "##laced": 25094, "##iam": 18331, "##lm": 13505, "Players": 6624, "electromagnetic": 19805, "Melinda": 27042, "easily": 3253, "Broadcasting": 7186, "phases": 12877, "##walk": 13868, "pathetic": 18970, "Tabitha": 23856, "remix": 9879, "Yesterday": 21997, "1879": 6917, "meals": 13077, "repaired": 14129, "latitude": 18579, "##rank": 14687, "Bonn": 21066, "surprised": 3753, "suicide": 5680, "Walkover": 20204, "respect": 4161, "particle": 11287, "cheer": 18456, "possessive": 25254, "Aug": 16892, "##io": 2660, "Baptist": 7047, "NO": 24819, "http": 8413, "##00": 7629, "bonds": 10150, "##lons": 22318, "D": 141, "able": 1682, "##bor": 12207, "believers": 26584, "ate": 8756, "Cal": 11917, "Obviously": 15580, "Reeve": 26034, "David": 1681, "generating": 12713, "users": 4713, "##icked": 27545, "focal": 17811, "motioned": 13325, "Celebrity": 20448, "Dell": 18451, "Governorate": 17596, "Gone": 12289, "Jury": 15169, "##gi": 5389, "Oilers": 22243, "couples": 5509, "##imes": 15370, "##heus": 25212, "maize": 26114, "solo": 3444, "measuring": 10099, "def": 19353, "plague": 13824, "freaking": 14599, "following": 1378, "reputation": 5244, "tipped": 11213, "superhero": 18365, "Lisa": 6516, "##\u207b": 28710, "wonders": 21346, "illustrate": 20873, "signature": 8250, "##power": 9447, "Bach": 10420, "described": 1758, "unfamiliar": 17546, "complained": 10790, "\u72ac": 1054, "Lia": 25760, "alike": 11609, "advantages": 13300, "surround": 16858, "scanned": 11812, "least": 1655, "episcopal": 24451, "1930": 3630, "Luca": 16730, "110": 6745, "flights": 7306, "rectangular": 10848, "Daddy": 9979, "Kingston": 9557, "centimetres": 14421, "##ste": 13894, "PC": 7054, "fourth": 2223, "##gun": 11652, "yes": 4208, "basement": 8078, "accelerated": 16112, "Algeria": 11347, "Stations": 24650, "communal": 17022, "redundant": 24520, "obsession": 21243, "Hades": 26015, "centre": 2642, "unlocked": 14776, "NWA": 16707, "License": 24689, "\u1ee7": 760, "##loading": 19910, "erase": 27224, "detailing": 18954, "unite": 20301, "##\u00b4": 28169, "\u661f": 1035, "daytime": 14907, "\u00b0F": 7701, "ringing": 13787, "##angay": 23001, "##kara": 14567, "economic": 2670, "\u0259": 357, "ramp": 14207, "100th": 18026, "plaintiff": 23940, "importantly": 16246, "##ore": 4474, "links": 6743, "tour": 2465, "originated": 7506, "actor": 2811, "protruding": 27032, "Bill": 2617, "swiftly": 12476, "Sarah": 3696, "Molecular": 22175, "\u0630": 574, "subscription": 16759, "##sworth": 14775, "zombie": 16192, "vitamin": 23971, "##lsson": 22481, "##anti": 25711, "Mid": 9825, "Hume": 22427, "##urney": 24339, "##beat": 14262, "Sadie": 23486, "##kini": 25009, "##gant": 24581, "conveyed": 23777, "##fred": 23943, "\u0152": 315, "Dancer": 20053, "33": 3081, "##AC": 8101, "Comic": 14536, "Effect": 27007, "Perry": 6306, "honors": 8357, "AHL": 22030, "Savannah": 11304, "banker": 15304, "\u028b": 370, "##lake": 13238, "viewer": 15403, "##mans": 14761, "Rubin": 22686, "##aire": 9674, "distinctive": 7884, "farther": 8791, "\uff08": 1097, "Andrew": 3217, "Abel": 17931, "thump": 24965, "formerly": 3147, "##ckney": 24614, "battery": 7105, "French": 1497, "Joy": 10768, "bunker": 23674, "villagers": 12453, "##twined": 23141, "##pp": 8661, "takeoff": 22149, "percent": 3029, "grasping": 24624, "Chart": 6900, "occupational": 25779, "Monica": 8958, "Suite": 14958, "amid": 15872, "##star": 10058, "Stephen": 3620, "##lates": 23591, "weekday": 18730, "inactive": 18040, "##hropic": 27544, "Eddie": 5040, "##mu": 13601, "Need": 12528, "##am": 2312, "bachelor": 8091, "shoes": 5743, "disc": 6187, "\u0444": 495, "Dominican": 9903, "surely": 9929, "Presents": 21680, "hovering": 17785, "Weeks": 23519, "##vies": 24848, "tends": 12246, "Products": 16818, "hugging": 19558, "von": 3262, "Vogue": 22257, "depicts": 11268, "Program": 4659, "comprehend": 24822, "preceding": 11139, "Future": 7549, "Wu": 8769, "Havana": 16092, "hastily": 17132, "Mohammad": 12460, "Loss": 22008, "shrines": 26723, "##86": 22392, "points": 1827, "##conductor": 21236, "Jung": 13279, "ordinary": 6655, "blonde": 9853, "wore": 4307, "Brunei": 20249, "##dah": 16662, "aft": 18616, "Cincinnati": 7304, "convention": 6765, "##ital": 19058, "ninety": 16696, "Darling": 12777, "##lett": 21664, "algebraic": 19669, "##iver": 18053, "singles": 3896, "Kick": 27596, "tactical": 12394, "conversations": 12705, "Caesar": 11720, "1843": 9869, "Harold": 6587, "Nicole": 9628, "Radical": 20411, "##rical": 17211, "developments": 9093, "1600": 15567, "Mary": 2090, "##tars": 23810, "##\u057d": 28433, "\u0923": 611, "##mo": 3702, "##sity": 13730, "proprietor": 25543, "Welsh": 5447, "tender": 8886, "neither": 4534, "recognizes": 15294, "Bud": 17084, "landing": 4636, "Waltz": 25943, "Tree": 8659, "##ilt": 14080, "orange": 5925, "brewery": 17876, "##eno": 26601, "suppress": 17203, "##citing": 24254, "401": 25182, "tumor": 14601, "Saturday": 4306, "##pid": 25786, "couch": 5943, "Dental": 24487, "Ph": 7642, "##erie": 15148, "Regis": 25510, "Stirling": 16502, "rules": 2995, "Brewery": 23418, "Neck": 27369, "Salisbury": 14268, "Panel": 20339, "Most": 2082, "dance": 2842, "damp": 10660, "1887": 6225, "##sta": 8419, "Land": 4026, "Aiden": 15848, "charge": 2965, "##kel": 13622, "displaying": 15959, "##irt": 25074, "Denny": 15073, "supplemented": 22625, "Elliot": 11825, "prisons": 20070, "Maxim": 25217, "Quran": 23593, "Casimir": 27839, "Muhammad": 6710, "respectable": 21742, "Dry": 18112, "redevelopment": 18234, "Thailand": 5872, "Purdue": 21537, "Bing": 19662, "winters": 17415, "Finalist": 24814, "Yankees": 11063, "##\u4ebb": 28879, "Slim": 22191, "MiG": 25107, "drinks": 8898, "39": 3614, "Emily": 5590, "Butcher": 25991, "grown": 4215, "sunshine": 18080, "shell": 5963, "##vation": 11583, "granddaughter": 13118, "spines": 22503, "Reform": 10201, "initially": 2786, "neglect": 21398, "emphasized": 13463, "mill": 6159, "liver": 11911, "look": 1440, "[unused77]": 77, "Present": 13653, "unnatural": 25126, "Peninsula": 7339, "hostage": 14551, "maps": 7415, "Girls": 4808, "filtered": 24430, "Mysore": 22822, "temples": 8433, "##ailing": 26753, "##nova": 14570, "cradled": 26830, "##g\u00e9": 21645, "works": 1759, "##llen": 13815, "1799": 14287, "Anya": 24221, "##ndas": 27417, "calls": 3675, "Equipment": 22897, "interface": 8551, "weeds": 25536, "##ided": 10517, "barrels": 14619, "##bbs": 20763, "##ntial": 24459, "floated": 14146, "disturbance": 19019, "##wich": 9242, "MBA": 16079, "comedy": 3789, "Sai": 25185, "Updated": 17451, "##pired": 23709, "Macdonald": 21274, "never": 1309, "Huddersfield": 21456, "arranging": 21203, "bread": 8162, "expectations": 11471, "Elle": 17915, "##hetic": 18994, "\u77f3": 1062, "Salford": 25639, "boats": 5778, "##\u00b0": 7259, "ISBN": 2282, "##ique": 5484, "Boat": 12936, "Bells": 24203, "Household": 25705, "Antioch": 20755, "\u2021": 793, "branded": 11450, "\u592b": 1012, "collections": 6286, "Gaza": 15109, "Challenge": 6571, "##\u2116": 28735, "papal": 16701, "campaigned": 17200, "edible": 24525, "dedicated": 3256, "Map": 21824, "decree": 11903, "une": 25731, "Important": 21991, "Masonic": 25080, "##ivision": 28096, "##\u01eb": 28270, "cruelty": 22125, "came": 1338, "animal": 3724, "\u00a8": 205, "Built": 10521, "discoveries": 17707, "##\u098f": 28542, "Dolphins": 19112, "##taker": 20091, "##ssy": 15074, "purchase": 4779, "Forrest": 17367, "##rm": 9019, "Bucks": 22633, "flirting": 23667, "streaming": 11403, "##tional": 15937, "meal": 7696, "newer": 11483, "16th": 5050, "Martins": 22670, "trans": 14715, "scored": 2297, "religious": 2689, "Holden": 9792, "191": 21625, "##mme": 12140, "rebuilt": 6669, "##zel": 13430, "feelings": 4681, "genuinely": 16997, "Jett": 25653, "autobiography": 12134, "phosphate": 19273, "##\u060c": 28469, "##RI": 20595, "##oit": 23508, "##oons": 17658, "##san": 9995, "Dodge": 14205, "Wars": 6238, "##ilization": 15100, "Ted": 6564, "##ynasties": 25643, "##logy": 6360, "Isa": 27334, "dinosaur": 23569, "Doom": 18309, "##roup": 24220, "oath": 12749, "keeping": 3709, "Willem": 20378, "##zda": 26604, "prison": 3315, "##gets": 22785, "learn": 3858, "##ult": 7067, "justify": 17422, "analyzing": 23389, "##VB": 18339, "refugee": 15820, "diary": 12997, "Vaughn": 19633, "##rits": 26846, "satisfactory": 26192, "thus": 2456, "punishment": 7703, "surrounded": 4405, "breakup": 21194, "cakes": 27748, "##sable": 17272, "scattering": 19665, "grove": 28011, "annoyed": 12049, "murderer": 14603, "Additionally": 5533, "practitioner": 22351, "knows": 3520, "Microsoft": 6998, "witnessed": 9491, "grammar": 12616, "executives": 14011, "resist": 9345, "anatomy": 19768, "179": 22166, "##orax": 25632, "joy": 8730, "Corp": 13619, "Bryn": 21746, "1986": 2177, "##NA": 11185, "##vo": 6005, "eccentric": 20276, "providing": 3558, "photographic": 15368, "recognizable": 22082, "clashed": 25144, "##biotics": 25523, "survey": 5980, "##CT": 16647, "top": 1499, "dazed": 24528, "kissing": 7567, "##rain": 11098, "handful": 8973, "terror": 8938, "everybody": 10565, "##FB": 24366, "Led": 18657, "gymnastics": 20679, "Marty": 12768, "##pathian": 24555, "deprived": 19576, "counselor": 23550, "##ger": 2895, "wonder": 4608, "pedestrian": 16270, "molecular": 9546, "Communist": 5248, "charity": 6630, "chloride": 21256, "##polis": 14386, "##unds": 20408, "northeast": 4691, "Joker": 24112, "nicknamed": 10446, "Band": 4230, "association": 3852, "##lished": 20275, "comb": 27481, "virgin": 16946, "maiden": 13636, "qualify": 7044, "Karen": 7677, "\u3059": 905, "mythology": 12040, "Mecklenburg": 24345, "evolutionary": 14745, "##kari": 20231, "Countess": 13106, "##fare": 14154, "removed": 2856, "Trial": 12819, "bidding": 19520, "Expedition": 12143, "##oh": 10559, "Food": 6702, "##sai": 19021, "Winnipeg": 11070, "HQ": 17426, "##nk": 6773, "smuggling": 21974, "statesman": 25248, "ACC": 18396, "hearted": 21898, "pocket": 4480, "proclaimed": 9950, "holders": 14322, "dairy": 14874, "petroleum": 17697, "glancing": 11849, "##51": 24050, "Lutheran": 9836, "vapor": 23548, "##lit": 12888, "folklore": 16106, "canyon": 18964, "suspects": 13928, "[CLS]": 101, "##hardt": 16464, "km\u00b2": 2287, "Consul": 23184, "soup": 13128, "Gustavo": 27956, "inhaled": 16957, "sparks": 20304, "\u0643": 587, "give": 1660, "tone": 3586, "wired": 26473, "##eville": 25458, "##LP": 20009, "blows": 14977, "7": 128, "##hall": 8897, "##passing": 21793, "Citizens": 14649, "##avan": 21714, "scouting": 26820, "visible": 5085, "knife": 4937, "clothing": 5413, "##place": 11256, "shutting": 19702, "vest": 21531, "Gregor": 18123, "G\u00f6ttingen": 26619, "Castro": 11919, "##glass": 16802, "##ID": 9949, "pipeline": 15826, "activists": 10254, "immigrant": 12338, "##tech": 22218, "attends": 27150, "##vili": 24465, "monument": 7020, "Racecourse": 20042, "RAAF": 25391, "expertise": 11717, "convenient": 14785, "##miya": 25553, "lakes": 9231, "Marvin": 14165, "##roner": 21947, "\u09b9": 661, "ceremonies": 11605, "\u767d": 1058, "extended": 2925, "Mead": 24700, "ducks": 24488, "##\u03ac": 28335, "Gotta": 26505, "##\u1e28": 28631, "244": 27160, "\u3082": 922, "arrow": 11473, "warlord": 26676, "##buster": 27338, "downward": 14833, "contributors": 19492, "Andes": 19505, "##ffin": 16274, "conductor": 7780, "joined": 1688, "realistic": 13142, "Congo": 8695, "DOS": 19132, "originating": 16394, "##rdy": 21366, "Looking": 8540, "insects": 9895, "Le\u00f3n": 14020, "immortality": 25211, "crawling": 17872, "Spy": 19212, "gene": 5565, "comparing": 15089, "inclusive": 21783, "Forum": 8576, "##\u0146": 28234, "##dai": 14117, "\u01b0": 343, "pillars": 15592, "##\u9f8d": 28980, "isn": 2762, "differentiate": 23159, "destinations": 15309, "175": 13057, "captured": 3297, "Metropolitan": 5458, "stretched": 6572, "Jesus": 3766, "unreliable": 26641, "##ld": 5253, "confinement": 24478, "guardian": 14436, "Neo": 14521, "Castle": 3856, "bears": 8807, "show": 1437, "CDs": 16881, "cardiac": 17688, "##arian": 7968, "##\uff09": 28991, "folds": 17373, "##mpest": 25214, "poisonous": 26106, "##erries": 22707, "Settlement": 19097, "Opposition": 16475, "taking": 1781, "tails": 21315, "religion": 4483, "-": 118, "##led": 2433, "drive": 2797, "##odles": 27267, "counterpart": 14132, "Prof": 11644, "Falls": 6230, "Konrad": 25834, "fund": 5841, "Annapolis": 28082, "sneak": 14647, "Enrique": 16683, "roughly": 4986, "Wills": 23480, "\u20b9": 838, "rid": 9297, "upgrade": 12764, "##oud": 13431, "##\u0f58": 28593, "Charleston": 10874, "Falcons": 16952, "243": 25465, "provoked": 21094, "rare": 4054, "paintings": 4694, "Jo": 8125, "backstage": 25679, "Guadalupe": 26306, "60th": 22963, "\u0935": 623, "##kovic": 22953, "prefers": 21042, "##ie": 1663, "Lumpur": 19083, "tool": 6806, "liar": 22569, "medals": 6498, "[unused42]": 42, "panel": 5962, "norm": 18570, "river": 2186, "\u0175": 333, "speeds": 10979, "##boats": 15980, "typed": 23477, "Dare": 22471, "##\u041e": 28379, "##LL": 23955, "kernel": 18670, "rehearsal": 20762, "Outside": 9572, "##mler": 20465, "##oll": 12666, "apply": 6058, "rewards": 22278, "Island": 2054, "automatic": 6973, "skinned": 22003, "Afterward": 26869, "Township": 3671, "consecrated": 12636, "##\u301c": 28786, "##\u09ae": 28558, "Films": 9141, "Seal": 19200, "##byss": 24598, "##41": 25892, "contacted": 12017, "along": 1373, "search": 3403, "poses": 25366, "suite": 9555, "##\u2606": 28768, "Khan": 4340, "appeal": 5767, "animals": 3551, "##lsive": 27199, "phrase": 7224, "Nicolas": 10418, "\u2116": 840, "peering": 19205, "gloves": 12845, "##heses": 18769, "Rafael": 11002, "##ene": 7582, "reduced": 3549, "Bianca": 19772, "##\u025b": 28279, "contained": 4049, "feat": 8809, "[unused54]": 54, "divide": 13330, "scratch": 14515, "networking": 16074, "##standing": 17277, "##rith": 24969, "hazards": 26302, "Quarter": 12664, "Ladies": 10504, "Sept": 20456, "sample": 6876, "##\u00e1": 5589, "\u0f66": 693, "inn": 14880, "Steps": 27913, "finale": 10554, "Cary": 22527, "##dbury": 26837, "nutrition": 20121, "sighs": 22447, "##latter": 19709, "mount": 11885, "loan": 4891, "rang": 8293, "rat": 11631, "sitting": 2807, "MCA": 24955, "Hence": 13615, "editorial": 9378, "##omer": 23806, "plate": 4885, "get": 1243, "CW": 21303, "escaped": 5742, "provides": 2790, "regulation": 8585, "lecture": 10309, "Hu": 20164, "GMA": 22983, "##hala": 19456, "Hungarians": 26964, "werewolf": 14665, "Park": 1670, "bump": 20700, "}": 198, "representing": 4311, "\u02bf": 383, "##space": 21220, "Admiral": 6114, "\u0418": 456, "##pi": 8508, "dislike": 20662, "summon": 21147, "Malta": 9723, "intend": 13938, "##besity": 27655, "themes": 6621, "inherited": 7459, "Jai": 19183, "doubts": 14351, "meantime": 13115, "bulk": 9634, "Local": 5328, "massage": 26088, "freshly": 22866, "juvenile": 15031, "##v": 1964, "grins": 22317, "Inn": 9859, "Hat": 19454, "##vana": 25860, "##abar": 23815, "Hubbard": 17640, "Face": 10289, "##ping": 2624, "demonstrate": 10541, "Gandhi": 12508, "Portrait": 13954, "##O": 2346, "Sergey": 25252, "[unused31]": 31, "Cave": 11900, "residue": 24456, "vacation": 12020, "propose": 17794, "\u4eac": 984, "moving": 2232, "##jord": 17335, "splendid": 27120, "400": 3434, "colleagues": 8304, "decoration": 12824, "pepper": 18700, "##tical": 10165, "cook": 9834, "aggressive": 9233, "##ford": 2821, "recipes": 23492, "##itate": 22536, "circulated": 18921, "Pine": 11465, "22": 1659, "account": 3300, "tracks": 2390, "##\u25cf": 28766, "thrust": 7113, "Sutherland": 14831, "hot": 2633, "biological": 7269, "ID": 10999, "films": 2441, "brightly": 14963, "receivers": 21535, "notices": 15749, "importance": 4495, "##ured": 10105, "##worthy": 13849, "consonants": 21972, "##ne": 1673, "Equity": 25083, "##rned": 23537, "Emerson": 12836, "pulls": 7561, "Okinawa": 15777, "se": 14516, "Libraries": 27927, "beetle": 7924, "##erapy": 20704, "BR": 26660, "nothing": 1720, "##geny": 21004, "lion": 11160, "offerings": 16102, "Deputies": 21588, "metabolic": 25158, "##organisation": 28037, "Tau": 27046, "Kendall": 15151, "venues": 9165, "reflections": 26906, "brackets": 22019, "timed": 25457, "doctors": 8114, "bizarre": 15507, "Algiers": 25571, "call": 1840, "1920": 3598, "Chow": 24349, "placement": 12693, "Troy": 9454, "##uay": 19925, "##rg": 10805, "Archaeology": 20193, "Hook": 15867, "##lick": 13299, "rescued": 10043, "gamma": 21400, "610": 21591, "##urers": 24990, "##phe": 27801, "\u00a5": 203, "chain": 4129, "Tori": 28017, "Oricon": 24660, "##tat": 19756, "WWE": 11729, "incident": 4497, "##riad": 20144, "images": 4351, "Volunteers": 19340, "Mans": 18180, "Intel": 15397, "Taliban": 17677, "##ymphonic": 20565, "contemporaries": 18544, "72": 5117, "1895": 5639, "Instruments": 25832, "Sal": 18613, "popped": 10447, "##ang": 4993, "##atory": 13424, "##50": 11049, "disgusting": 22852, "##tata": 18244, "lectured": 20951, "wrap": 10561, "##iscovered": 24968, "##cation": 14520, "normal": 2999, "rays": 11611, "assembled": 8968, "##ards": 13584, "##rth": 11687, "Novak": 22788, "chronicles": 22329, "Thinking": 16204, "##los": 8867, "##dic": 13328, "Illinois": 3461, "##laus": 17442, "constitute": 12500, "profit": 5022, "Maltese": 20093, "flames": 8150, "Roach": 25483, "AN": 23096, "dictated": 26754, "##ides": 8959, "##ina": 2983, "pairs": 7608, "confusion": 6406, "Lincoln": 4617, "##lets": 9585, "lyricist": 24379, "147": 17491, "\u209c": 834, "Dorset": 16180, "##oughs": 25500, "ni": 11437, "##DF": 16395, "##pphire": 24383, "hoping": 4717, "Stuart": 6395, "1907": 4796, "DJ": 6027, "capabilities": 9816, "##sberg": 19945, "Bowman": 21502, "##ider": 18494, "Huntington": 17390, "##ogram": 28012, "neck": 2455, "clockwise": 26668, "grid": 8866, "biologist": 24742, "##BB": 20056, "verbal": 14093, "Quite": 22597, "Heidi": 23669, "scene": 2741, "##ogen": 19790, "WA": 22751, "##\u043d": 17127, "stairwell": 24668, "pill": 21822, "design": 1902, "Pakistan": 3658, "##pressed": 15716, "Lao": 21422, "Marc": 7504, "Hasan": 18892, "Cheng": 17525, "visibility": 18319, "Got": 7348, "plantation": 12739, "kidnapping": 16440, "Observer": 16460, "Dewey": 22213, "evergreen": 27818, "##nio": 22772, "Kali": 22576, "Shakespeare": 7647, "##rnal": 25286, "##ers": 1468, "##\u0399": 28322, "Friedman": 19942, "Hawthorne": 26220, "commands": 11443, "pressed": 3691, "curl": 17331, "Selected": 17018, "##ppard": 22261, "Charts": 25085, "risks": 11040, "##gn": 17653, "animated": 6608, "##PM": 14808, "Hunter": 4242, "Electrical": 13779, "##came": 22865, "\u09b8": 660, "restaurant": 4382, "Sebastian": 6220, "Harding": 16294, "rituals": 14490, "receiving": 4172, "##lad": 23850, "Lilly": 15482, "spiral": 14061, "Moss": 13626, "remedy": 23615, "178": 20977, "kingdoms": 16685, "##sa": 3202, "##gill": 20254, "Regent": 17626, "car": 1610, "##ai": 3814, "geological": 16622, "Panther": 19719, "Hebrew": 6235, "303": 21786, "##iability": 26468, "##10": 10424, "emerging": 8999, "\u3086": 924, "##harine": 20415, "minors": 21675, "valid": 9221, "railroads": 18558, "wind": 3223, "winner": 2981, "clinical": 7300, "##manned": 25820, "Sol": 17135, "riders": 9958, "##\u00f1a": 11172, "maneuver": 19844, "Heavy": 10580, "Americas": 11198, "chronicle": 26539, "slice": 16346, "butterflies": 18344, "##duct": 13890, "Reverend": 10990, "stated": 2202, "voluntary": 12048, "hooked": 14111, "prior": 2988, "##iq": 28101, "stocks": 17901, "West": 1537, "##rrows": 24847, "##37": 26303, "##aul": 18318, "repetitive": 26976, "##iance": 19425, "arranged": 4768, "Tonight": 8912, "1921": 4085, "nuclear": 4272, "offensive": 5810, "Imperial": 4849, "##\u7701": 28953, "##foot": 10744, "monasteries": 18846, "[unused88]": 88, "##sler": 21318, "Putnam": 22072, "letter": 2998, "elections": 3212, "##tility": 20688, "minister": 3907, "##17": 16770, "Bloody": 17921, "##iner": 16167, "##\u00e8res": 16981, "Dash": 23460, "##sett": 26448, "Horton": 19923, "##tta": 5100, "[unused64]": 64, "worker": 7589, "##rrow": 8674, "kindergarten": 15001, "paternal": 16063, "inaugural": 7517, "overtime": 13357, "##hone": 17541, "coats": 19582, "Shade": 20956, "Davey": 22618, "restrict": 23951, "305": 22289, "counts": 10664, "ruins": 8606, "Himself": 20848, "##oso": 22354, "ending": 3830, "##former": 23763, "##hurst": 10623, "##\u0f7c": 28600, "envisioned": 19512, "piers": 23747, "shed": 8478, "opponent": 6566, "peripheral": 17963, "Bacon": 17887, "Em": 18653, "racist": 18848, "admire": 21937, "##SO": 23161, "theoretical": 10093, "balancing": 23858, "learns": 10123, "Hopkins": 10055, "westward": 17222, "performing": 4072, "Owens": 15500, "##bius": 19071, "##kat": 24375, "Hoover": 18779, "funding": 4198, "bakery": 23986, "avoided": 9226, "calculated": 10056, "##ois": 8586, "Woodstock": 23128, "##\u10e1": 28608, "drought": 16076, "##wing": 7635, "##lumber": 26993, "thud": 23456, "##stones": 27572, "Funk": 20019, "Espa\u00f1a": 23453, "##luck": 23251, "predecessor": 8283, "Trying": 19020, "Pleasant": 16836, "\u05d0": 535, "selective": 14930, "flexibility": 18605, "##bres": 22954, "finishing": 4416, "Turnpike": 23303, "##mada": 24817, "proposition": 21133, "displayed": 6361, "patterns": 6692, "slated": 20191, "conflicting": 21776, "375": 19397, "84": 5731, "comments": 7640, "Eleven": 15159, "listened": 7327, "neat": 17537, "widespread": 6506, "Destiny": 16784, "properly": 7513, "Experimental": 17635, "Century": 5944, "##abe": 22377, "transmission": 6580, "##bard": 27191, "Created": 25423, "##quila": 21005, "Super": 3198, "Energy": 5514, "Wilderness": 16436, "Sunday": 3625, "amendment": 12669, "shift": 5212, "Viva": 24949, "sic": 16554, "consumer": 8440, "anguish": 25096, "dictatorship": 21737, "##sons": 22966, "##ied": 4830, "lighthouse": 13416, "##garten": 20927, "Man": 2268, "Internal": 13545, "swords": 12604, "Provinces": 23478, "te": 21359, "donation": 14324, "##ests": 27838, "friendly": 4931, "tiles": 13947, "lacrosse": 21135, "signaled": 24771, "##plex": 21790, "##ope": 15622, "##\u0144": 19339, "Pieces": 23231, "consort": 19518, "weight": 2841, "fractured": 25555, "pickup": 17257, "##\u0f51": 28590, "Chemistry": 10847, "Yuri": 15110, "gently": 4588, "thousand": 4032, "##uristic": 26900, "fight": 2147, "##\u00c0": 28179, "\u017c": 337, "##MS": 7182, "crystal": 8626, "collar": 9704, "Bright": 13603, "##right": 12601, "rogue": 21010, "##lative": 26304, "Finals": 9801, "##scribed": 25626, "##dae": 5598, "thickness": 15830, "surrounds": 22727, "referenced": 15780, "##utz": 27578, "sounding": 9209, "Arc": 18647, "##EC": 8231, "slaughtered": 26071, "simulated": 27210, "denomination": 20493, "According": 1792, "45": 2532, "referee": 11601, "Elmer": 23737, "8": 129, "blinded": 24255, "Ernesto": 24918, "##ilian": 27308, "Fighter": 7388, "Divisions": 21460, "play": 1505, "##rky": 15538, "##dr": 23632, "##vyn": 27347, "fake": 8406, "lands": 4508, "needed": 1834, "coordinate": 14137, "##yper": 24312, "1813": 12282, "##lying": 15318, "decorated": 7038, "##vering": 15878, "fossils": 13104, "Ace": 12860, "##cite": 14375, "lacks": 14756, "##lai": 20737, "Livingston": 14648, "underwent": 9315, "prop": 21146, "##\u2022": 28696, "##narl": 27831, "##rgus": 24200, "Learning": 9681, "##FP": 20912, "windshield": 21522, "decades": 4397, "Winkler": 22382, "flushed": 13338, "Barker": 13208, "ventral": 27037, "M\u0101ori": 15929, "\u300f": 892, "spending": 5369, "responsible": 2784, "shortened": 12898, "mistaken": 14184, "girlfriend": 6124, "##rants": 18937, "bursting": 24329, "glimpse": 12513, "##Script": 27780, "aliens": 14498, "##marine": 19845, "living": 1690, "Terrace": 17654, "beacon": 25973, "Counties": 12259, "dive": 12706, "Brooks": 8084, "##60": 16480, "Maryland": 4624, "##bre": 9730, "earthquake": 8386, "##well": 3192, "Bernstein": 20436, "##bra": 6766, "Montenegro": 13259, "Burgess": 19683, "Kamal": 24586, "Expo": 18947, "\u0420": 463, "Shin": 14522, "Triple": 9457, "drop": 3968, "heritage": 5900, "Hindu": 7083, "ambassador": 9088, "Shire": 16108, "Elders": 27932, "\u05df": 549, "Costa": 7176, "sisters": 5919, "miss": 5529, "##uang": 25530, "##el": 1883, "Stewart": 5272, "satisfying": 18330, "skull": 7753, "Fallen": 22507, "Ramirez": 25261, "Simple": 16896, "Along": 6364, "licensed": 6825, "measured": 7140, "barren": 25065, "##section": 25461, "stud": 24084, "\u0632": 576, "##smatic": 23626, "##lde": 20937, "1784": 17521, "##\u8eca": 28965, "##litz": 15516, "##bana": 21182, "gate": 5400, "configuration": 9566, "culminated": 18048, "Sabrina": 24250, "Isles": 15429, "treatment": 3252, "CBN": 24178, "\u039c": 404, "\u90e1": 1076, "260": 13888, "Sands": 18869, "Quickly": 26705, "##\u045b": 28422, "protagonists": 24541, "\u015e": 320, "switched": 6759, "acquaintance": 20125, "Media": 3957, "Ana": 9954, "##lore": 21425, "Herb": 20780, "north": 1564, "assemble": 24945, "Step": 14232, "potent": 18106, "prophecy": 19214, "dog": 3676, "legislators": 27597, "detained": 15474, "talking": 2520, "global": 4265, "convertible": 28086, "\u093f": 629, "unreleased": 14605, "Natural": 6240, "##wu": 20236, "trail": 5126, "Industry": 7358, "Geological": 14802, "24": 1572, "Hague": 15201, "melodic": 19126, "##rricular": 23821, "adjusted": 10491, "Fresh": 15756, "translate": 19396, "##\u03ae": 28337, "demonstrates": 17798, "##market": 19919, "accept": 4392, "Christopher": 4978, "Reconstruction": 20750, "Historical": 6794, "Heat": 9653, "##secration": 27607, "##boro": 10090, "##ix": 7231, "inception": 12548, "Tuscany": 25985, "##\u1fc6": 28677, "warrior": 8229, "autonomy": 13987, "Ling": 20815, "Ulrich": 21351, "rotor": 22365, "manned": 16813, "did": 1225, "finalized": 26418, "yard": 3723, "reaction": 3943, "cautious": 18596, "interfaces": 22739, "Guards": 9696, "character": 1959, "Meiji": 25897, "sticks": 13963, "overseas": 7474, "Kiel": 23144, "##\u056f": 28428, "somehow": 5006, "mandated": 17983, "perceived": 8367, "##\u1d35": 28610, "##connected": 24323, "speed": 2420, "Creative": 10963, "assuming": 11577, "##phere": 13591, "greater": 3407, "##von": 19988, "pending": 15498, "Choir": 12511, "tournaments": 8446, "sandwiches": 25326, "Gas": 12384, "##DM": 20002, "20th": 3116, "McGuire": 26821, "##\u045a": 28421, "bids": 23733, "##H1": 27012, "Cobra": 21841, "\u209a": 832, "hydrogen": 9986, "##ified": 6202, "##EL": 21678, "Simpsons": 20726, "destined": 17348, "lawyers": 10630, "Syracuse": 11775, "Baja": 21519, "##40": 12882, "##ranton": 27601, "sure": 1612, "##ose": 6787, "roster": 9197, "##pted": 15514, "Handbook": 18267, "##rick": 8053, "squared": 23215, "##restle": 22713, "talents": 12236, "licenses": 17488, "##lades": 19872, "George": 1667, "\u0282": 367, "##leen": 21180, "Continuing": 20699, "More": 3046, "Phoenix": 6343, "\u2260": 861, "taken": 1678, "##uts": 10793, "Tucson": 18740, "leading": 2020, "##aud": 16631, "##rted": 26048, "magazine": 2435, "##scription": 19256, "##as": 2225, "Mustafa": 21638, "sorts": 12072, "Garion": 12696, "DSO": 25577, "squadron": 5780, "creature": 6093, "electricity": 6495, "Ashley": 9017, "pants": 6023, "cello": 11742, "apparatus": 16486, "pounded": 14216, "neural": 18250, "Emmy": 9933, "##\u0412": 28368, "undertaken": 10510, "qualified": 4452, "Powers": 12305, "vaccine": 20034, "\u30b5": 943, "Canada": 1803, "Basketball": 6035, "syrup": 27662, "Wakefield": 17039, "reading": 3455, "##yr": 12577, "##rig": 17305, "dye": 23966, "gripping": 15436, "sensations": 24783, "affiliates": 20795, "Speedway": 12081, "##rals": 16179, "Gamma": 23039, "cloud": 7180, "dictionary": 17085, "\u771f": 1061, "##iding": 26313, "EU": 7270, "Survivor": 23725, "Sonic": 16202, "##roon": 21467, "singer": 2483, "\u8fb6": 1073, "Issue": 15653, "nationwide": 9708, "fist": 7374, "1832": 10022, "Communications": 6345, "Anti": 8329, "Prison": 11375, "ruin": 10677, "cavalry": 7915, "##ressed": 18089, "##lines": 10443, "Degree": 16861, "pigs": 18348, "fi": 20497, "thicker": 22174, "Bob": 3162, "##isms": 16762, "sacrificed": 22353, "Rd": 23604, "bouts": 27996, "##ali": 10584, "Ian": 3978, "temper": 12653, "Serbian": 5881, "bottles": 11282, "Harlem": 15557, "##\u2192": 28740, "sequel": 8047, "leather": 5439, "cares": 16903, "1661": 26981, "##c\u00e9e": 19982, "landings": 18482, "Rotterdam": 16508, "Victory": 10663, "Synod": 22013, "Bishops": 15180, "##\u0432": 28394, "applicant": 27414, "pamphlet": 22461, "##dre": 11114, "bride": 12187, "excavation": 18682, "reproduced": 25017, "animation": 8794, "subscribers": 18786, "endless": 12401, "Chester": 8459, "IN": 15969, "Wanted": 20601, "218": 22723, "embarrassment": 15285, "coverage": 5811, "Soft": 19539, "la": 2495, "titles": 3727, "##lite": 21998, "Pasadena": 20458, "##icks": 18917, "his": 1117, "[unused94]": 94, "nucleus": 14297, "##rries": 15494, "##don": 3842, "drove": 4466, "greedy": 24007, "##nders": 24373, "Pizza": 26091, "auspices": 22105, "privacy": 9909, "grunted": 15637, "Beckett": 22562, "Jarrett": 27592, "##aks": 27843, "Omar": 13569, "Congressional": 12537, "sense": 2305, "reef": 18939, "picking": 8184, "hesitant": 22489, "models": 3584, "Peterborough": 18839, "emptiness": 27781, "##asily": 20158, "137": 15679, "lately": 10634, "Garner": 26971, "##kt": 21270, "Spaniards": 23068, "##achal": 26992, "significant": 2418, "##\u305f": 28801, "Lester": 14682, "##\u306b": 28807, "##ase": 6530, "Tudor": 16528, "Louisville": 11595, "briefcase": 24477, "She": 1153, "apparent": 6281, "preserved": 6018, "talent": 5939, "##rock": 10411, "Hammond": 11425, "##lithic": 26238, "inward": 23120, "##cos": 13538, "##\u0531": 28423, "Phelps": 22385, "tribunal": 23893, "graders": 26186, "##cademies": 23151, "##\u0425": 28386, "Tobias": 18167, "cancer": 4182, "equations": 11838, "Colombian": 13977, "accidental": 19839, "Cherokee": 14246, "behave": 18492, "##\u3084": 28816, "1930s": 4970, "Lo": 10605, "contracting": 26706, "sad": 6782, "funds": 4381, "inland": 11054, "investment": 5151, "processed": 14659, "##gall": 22629, "##obbing": 22967, "##\u2080": 18554, "Vilnius": 22440, "borrow": 20055, "generalized": 22214, "revered": 27415, "painting": 3504, "##tler": 17966, "ships": 2968, "flourish": 27760, "sanity": 24188, "discarded": 16041, "camera": 4504, "Hair": 19817, "deputies": 18317, "Slow": 19826, "bikes": 20852, "Incident": 26061, "Venetian": 16574, "##coat": 17518, "Vuelta": 24033, "favour": 7511, "\u00bb": 221, "AC": 9690, "Rough": 19479, "worse": 4146, "##\u0940": 28533, "##rator": 11412, "evenly": 19474, "May": 1318, "##rge": 12272, "##mism": 20279, "required": 2320, "Erwin": 24652, "##iferous": 25093, "surge": 12814, "1816": 12497, "sanctions": 19344, "Bose": 24880, "\u01ce": 344, "\u0540": 514, "##lmer": 23370, "802": 26758, "optical": 10312, "destroying": 9769, "Nazis": 13525, "Haifa": 23462, "Ni": 27453, "sewer": 27635, "##ral": 4412, "##print": 10988, "devastated": 14778, "##rok": 24830, "\u0bb5": 678, "churchyard": 24701, "##ees": 8870, "chewed": 19886, "Gemini": 23716, "Yours": 25901, "functionality": 16354, "decide": 4958, "##ntation": 24832, "Mohammed": 12811, "1944": 2782, "##ning": 3381, "guts": 22075, "Message": 24931, "##16": 16229, "nose": 3678, "collapsing": 26092, "willingness": 21623, "##sen": 3792, "transparent": 14357, "##hrill": 24657, "##munication": 22229, "1949": 3224, "Huang": 16831, "Miles": 7726, "322": 26605, "yoga": 20631, "boys": 3287, "Events": 17437, "shrine": 12157, "insanity": 23186, "Advocate": 20418, "user": 4795, "##skin": 22934, "##graving": 26200, "qualifying": 6045, "infantry": 6404, "activated": 9618, "##\u0105": 28213, "##\u7248": 28946, "IUCN": 22193, "##rber": 19644, "moderately": 19455, "##inus": 12376, "claw": 19659, "+": 116, "Mention": 26898, "furious": 10927, "total": 1703, "Iceland": 10271, "163": 19207, "views": 4696, "Telangana": 26695, "indie": 12665, "##rus": 6208, "##gor": 18791, "gentleman": 12400, "partition": 16416, "##ments": 4385, "##tley": 18932, "iconic": 15565, "respond": 6297, "grenades": 24872, "##kor": 26989, "strengthening": 18185, "Stop": 6682, "##lena": 23675, "coached": 8692, "##\u0423": 28384, "Augustus": 11740, "Roland": 7847, "Mercy": 14130, "##ute": 6140, "##tius": 18392, "Information": 4219, "Legend": 9687, "simplest": 23565, "comic": 4824, "disruption": 23730, "flow": 4235, "##sume": 22369, "minimal": 10298, "backseat": 22375, "##owed": 12595, "Yan": 14932, "\u91d1": 1079, "##nder": 9824, "##hoff": 18681, "Conversely": 24433, "correspondent": 12499, "Blaine": 21849, "societal": 27266, "Parry": 24602, "Leo": 6344, "##jiang": 16172, "Mum": 20409, "Rabbi": 8915, "##sitic": 27702, "##mber": 10615, "circuits": 15329, "address": 4134, "predict": 17163, "presenter": 10483, "equally": 7808, "##\u0291": 28294, "\u039b": 403, "deputy": 5874, "##\u0650": 28499, "##we": 7921, "##wara": 11525, "Sitting": 17660, "comfortably": 20542, "Pen": 23544, "invested": 11285, "Josef": 13168, "##\u0218": 28271, "##lands": 6754, "Centro": 19927, "1873": 7110, "Dennis": 6277, "Kaye": 26522, "##lemma": 23397, "slipped": 5002, "##\u3086": 28817, "lively": 21088, "##\u0442": 28404, "##rve": 24941, "Barbara": 5934, "permission": 6156, "Stand": 11232, "boiling": 17913, "demonstrated": 7160, "warming": 14110, "in": 1107, "deploy": 23660, "Fantasy": 10037, "Jays": 21592, "##und": 6775, "interested": 3888, "curves": 10642, "Yusuf": 26798, "Sid": 17916, "Hui": 22107, "##rf": 11931, "investigate": 8242, "##force": 15910, "War": 1414, "largely": 3494, "##ud": 4867, "127": 13272, "coughing": 24992, "##zer": 6198, "lump": 16401, "panels": 9160, "recommendation": 13710, "Writer": 12515, "immense": 14934, "boasted": 26072, "\u00a1": 200, "chosen": 3468, "Flags": 14039, "Raoul": 24437, "organizes": 24532, "where": 1187, "powered": 5605, "planned": 2919, "[unused48]": 48, "awe": 16958, "##code": 13775, "Tam": 22876, "changing": 4787, "##lus": 5954, "Guardian": 7754, "Turkish": 4229, "solutions": 7995, "##onized": 25331, "consecutive": 4776, "inspection": 11820, "Rogers": 6836, "Storm": 7007, "Faculty": 6694, "Dee": 9115, "depressed": 15941, "##39": 24786, "##\u771f": 28954, "##aled": 18121, "##nell": 10376, "Colorado": 4369, "same": 1269, "etched": 22526, "##chanized": 26040, "##ters": 5759, "computing": 12783, "eventual": 9288, "engineers": 9067, "##ulates": 20267, "Walt": 10495, "inlet": 27036, "Kolkata": 13895, "##\u064a": 16070, "##ductor": 25836, "playback": 26249, "Ali": 4149, "draining": 21892, "Relations": 9269, "Theodore": 10408, "##meister": 27582, "##git": 24632, "sell": 4582, "Jammu": 23664, "Brussels": 9062, "2004": 1516, "##ggy": 14720, "hectare": 22364, "rude": 14708, "Roses": 17303, "Nord": 14782, "Kane": 8119, "Tolkien": 26396, "##\u021a": 28272, "arched": 8893, "handed": 3541, "banjo": 22250, "neighbourhood": 11685, "sadness": 12928, "Rama": 15078, "##mee": 21563, "Garrett": 9412, "Sufi": 25062, "Carver": 24714, "rebounds": 11174, "##des": 4704, "sixteenth": 16704, "Ignoring": 27853, "Butterfly": 21494, "Highest": 26209, "terminate": 22516, "washed": 8589, "##its": 6439, "flowed": 13565, "contention": 21374, "excitedly": 26988, "Cody": 13667, "manipulation": 18776, "storing": 27580, "Rod": 11945, "concentrations": 14759, "connect": 7543, "[unused4]": 4, "out": 1149, "thief": 16529, "##cin": 16430, "Austro": 18128, "##yang": 13490, "##eb": 15581, "##edia": 18246, "textbooks": 20980, "##\u044d": 28415, "foam": 20805, "marathon": 14147, "unbeaten": 22594, "##ledge": 19693, "endure": 19646, "reservations": 20624, "Matt": 3895, "shrink": 26406, "become": 1561, "image": 3077, "judicial": 9799, "##ava": 15677, "collaboration": 5294, "##chase": 18956, "developing": 4297, "##sused": 26097, "##\u00fan": 26784, "heavy": 2302, "ethical": 15380, "##ings": 5018, "pipe": 9415, "Comet": 28088, "varieties": 10003, "diplomat": 11608, "los": 12724, "##nts": 5240, "perennial": 15894, "coup": 8707, "Volleyball": 13741, "##iciency": 23864, "un": 8362, "banging": 25200, "Typhoon": 26490, "##lk": 10493, "immensely": 27590, "##ulton": 22465, "them": 1172, "meant": 2318, "publication": 4128, "enforce": 17542, "##QL": 22825, "##cs": 6063, "3": 124, "[unused17]": 17, "motions": 16628, "Celebration": 22677, "##lean": 21649, "##rino": 16987, "FDA": 18762, "Highland": 12103, "defence": 6465, "Hi": 8790, "October": 1357, "participated": 3360, "##ce": 2093, "Eureka": 23695, "accordance": 10274, "\u677e": 1043, "##fica": 24685, "##lla": 3848, "\u201a": 788, "plagued": 19543, "Ogden": 25868, "aerospace": 27689, "Rory": 14845, "lifts": 14302, "##ckoned": 21666, "twice": 3059, "Eurovision": 12968, "225": 15684, "Sharks": 18038, "Barnett": 21886, "##\u0106": 28214, "gazes": 26469, "##\u0987": 28541, "spirit": 4840, "San": 1727, "Native": 4363, "##rts": 13245, "Hicks": 18564, "Woodland": 26730, "Iraqi": 8612, "\u044c": 503, "centimeters": 19567, "##shed": 10680, "\u1d64": 722, "Fowler": 15738, "##lem": 14183, "resulted": 3657, "Europeans": 13810, "\u0bb2": 677, "Sato": 26824, "196": 21846, "acclaim": 10989, "shorts": 9330, "##ng": 2118, "Level": 9583, "institutions": 4300, "sentiment": 17024, "proponent": 25046, "surrendered": 10738, "Dwight": 14868, "##ille": 8683, "Michelle": 9075, "restricted": 7458, "classrooms": 13038, "Hank": 8902, "Nicholas": 5460, "Holly": 9030, "leveled": 25569, "Yamaha": 27275, "Grant": 4468, "##upe": 26939, "Meanwhile": 5459, "Win": 16387, "NL": 21239, "scooted": 27306, "##\u30b8": 28838, "wanna": 16445, "aging": 14195, "Clearly": 19260, "identity": 4193, "erratic": 27450, "Colin": 6381, "##ssi": 19828, "advising": 28002, "poison": 11539, "UCI": 15166, "cu": 16408, "stay": 2215, "##ilis": 22279, "AJ": 22078, "grew": 2580, "Colts": 16186, "Ebert": 25204, "Fishing": 23738, "Fulham": 23973, "Hamas": 24574, "##ave": 8308, "bubble": 13877, "singing": 4241, "##tions": 6126, "##pio": 27931, "##\u30c6": 28844, "sexually": 13014, "##nte": 11656, "cousin": 5009, "##vington": 26251, "statement": 4195, "##2": 1477, "##bos": 18071, "Besides": 4981, "##ulate": 9732, "frustration": 9074, "commander": 3877, "Invisible": 24823, "Sweet": 7643, "transactions": 14409, "Vaughan": 15063, "Royce": 15466, "##US": 13329, "##\u30cf": 28850, "##dled": 18357, "ceramics": 21703, "Giro": 21332, "Koreans": 27757, "bacterium": 27136, "kW": 5897, "##HD": 23527, "Bolivia": 11686, "##logists": 17246, "Angry": 24991, "Swan": 11956, "want": 1328, "arguing": 8995, "Hanna": 10502, "teenage": 11009, "##rrosion": 27741, "Crash": 21229, "forgot": 9424, "Vancouver": 6336, "baron": 26347, "14": 1489, "##;": 28141, "\u1fc6": 775, "Ghent": 27270, "Utah": 6041, "characterization": 27419, "alumni": 12762, "noisy": 24678, "Trinity": 6626, "president": 2084, "ps": 15604, "glucose": 20636, "1768": 21560, "relevance": 25319, "##\u2016": 28687, "##VS": 27127, "##ored": 13841, "precise": 10515, "Structure": 25341, "growth": 3213, "\u1ef1": 765, "Record": 7992, "Darcy": 18981, "curling": 16034, "1730": 25914, "Jenny": 8067, "##\u30c8": 28846, "arguably": 18271, "##oe": 7745, "##\u1ed9": 28657, "climbing": 8259, "Initiative": 13508, "tactics": 10524, "##iva": 12416, "##lessness": 18984, "##tting": 19162, "misery": 17490, "relying": 20790, "Yugoslav": 12433, "##hin": 8265, "vacancy": 16871, "battered": 19277, "Sharp": 13319, "arcade": 14751, "Orange": 6309, "Crown": 5373, "##uary": 18487, "Solid": 20375, "1747": 27614, "convection": 27803, "[unused57]": 57, "Highlanders": 26267, "##otypic": 27202, "neighbours": 18832, "##ann": 11657, "##bal": 7767, "Unix": 27272, "##zar": 8950, "immortal": 15642, "##volving": 24828, "Terrorism": 27792, "grows": 7096, "##\u0272": 28284, "tales": 11297, "advocate": 9411, "explosion": 7552, "\u0440": 491, "milk": 6831, "sized": 6956, "Shi": 14104, "scrapped": 15420, "clipped": 22281, "mined": 24359, "societies": 9306, "arrangements": 7371, "locked": 4594, "Jang": 27435, "##cky": 23143, "Productions": 7896, "leaned": 3149, "##EM": 15577, "switch": 6878, "##aph": 25890, "courage": 9163, "everywhere": 7244, "treatments": 14115, "containing": 4051, "Chao": 26168, "##hage": 19911, "##iera": 25579, "##aws": 19194, "Strong": 11661, "Ginger": 20326, "Carter": 5007, "\u09be": 663, "tournament": 2348, "battleship": 21335, "Morales": 18528, "meditation": 16910, "usage": 7991, "figures": 3736, "Heinz": 18928, "impressions": 25263, "activation": 14915, "##pling": 11624, "##CS": 12122, "alert": 10427, "flickered": 16945, "Macon": 23153, "##manship": 15924, "##fs": 22816, "\u0638": 582, "\u5b89": 1016, "Shri": 15795, "revolver": 23473, "Adrian": 7687, "##vres": 25870, "Marquis": 16318, "Now": 1986, "accountant": 23195, "marijuana": 18816, "afternoon": 4427, "##ification": 5783, "##otes": 27468, "##serve": 17886, "dignity": 14931, "##vsky": 13510, "Kuwait": 13397, "grade": 3654, "Radio": 2664, "examination": 8179, "plateau": 14404, "floating": 8379, "months": 1808, "##onium": 23772, "##amed": 25282, "##pper": 11292, "pay": 2653, "earn": 7379, "dreamed": 14728, "legislative": 7663, "##min": 7937, "##eh": 10486, "witnesses": 10313, "Larsen": 22111, "Background": 24570, "trivial": 23594, "\u042d": 472, "creativity": 17980, "Yunnan": 23967, "##tives": 27230, "##lles": 12132, "avant": 18595, "chancel": 17954, "##cist": 14015, "##\u201d": 28692, "communism": 23154, "Poe": 21377, "gestures": 20190, "##card": 10542, "##encing": 15856, "Shit": 12216, "timetable": 27646, "jaws": 19946, "beat": 3222, "Marxist": 16583, "styles": 6739, "##world": 13070, "refurbished": 20413, "1890": 5522, "Zhu": 16920, "278": 27832, "99": 4850, "informed": 6189, "Close": 11145, "dir": 23155, "extensive": 4154, "colour": 5922, "apron": 22859, "operating": 3389, "definition": 5754, "bell": 7315, "##met": 11006, "blowing": 11704, "valleys": 13900, "rewarded": 15314, "Citizen": 15783, "delight": 13657, "\u03bd": 430, "admiration": 18368, "realities": 27167, "jockey": 19010, "##\u677e": 28936, "##agu": 28026, "##hammer": 21427, "default": 12973, "EP": 4493, "underlying": 10311, "respects": 18788, "##\u1d65": 28625, "Mariana": 24764, "Ways": 24058, "Bartholomew": 21622, "supporting": 4374, "Morris": 5744, "##ho": 5114, "##ulin": 19001, "Di": 12120, "California": 1756, "Power": 3794, "##coach": 26851, "##dhi": 20832, "foe": 27579, "1954": 3183, "Diesel": 21651, "notion": 9162, "GPS": 16002, "Emeritus": 18212, "untouched": 25135, "1982": 2294, "simplicity": 20203, "squirrel": 25817, "##ronology": 18327, "\u1ee9": 761, "Juno": 23359, "Stories": 9337, "flashback": 27836, "households": 3065, "Presidential": 9643, "crisp": 19501, "prevailing": 21301, "dungeon": 23801, "96": 5306, "aggregate": 9453, "Fife": 23521, "require": 4752, "Brigade": 4292, "##ensis": 11085, "##ieu": 21114, "random": 7091, "Colour": 25809, "Arturo": 22462, "intended": 3005, "tourism": 8668, "Nazi": 5755, "trustee": 17665, "##ulously": 23268, "doorway": 6535, "drivers": 7016, "##estive": 23536, "overlooked": 18459, "genus": 2804, "underwear": 15082, "##jan": 8548, "##dius": 18889, "handball": 17678, "Drug": 13982, "[unused58]": 58, "lungs": 8682, "Sloan": 20675, "tune": 9253, "burned": 4562, "##ited": 10334, "##\u00e7ais": 26293, "subject": 2548, "Colby": 20198, "birthplace": 15979, "##tase": 25347, "hairs": 14087, "neighbour": 23634, "Santana": 23396, "\u7530": 1057, "17th": 4815, "lengthy": 12628, "##rail": 12797, "\u0121": 294, "medal": 3086, "ingredients": 13288, "##\u2019": 28689, "\u300d": 890, "ample": 23336, "Subway": 21925, "suggest": 5996, "Directed": 16698, "pastor": 11616, "professionally": 12486, "Defense": 5262, "##curement": 23505, "shocked": 6764, "Rand": 16731, "specifications": 17285, "##\u1d47": 28613, "incidents": 10563, "checks": 15008, "##\u2032": 28699, "Gypsy": 22153, "1861": 6255, "software": 3594, "##andra": 19799, "Domenico": 20187, "nearest": 6830, "##gal": 6997, "Pol": 17129, "structured": 15695, "carbon": 6302, "Devlin": 27449, "marriage": 2742, "###": 28127, "##\u2082": 7929, "##hh": 23830, "Galerie": 19851, "##disciplinary": 26096, "Michele": 18493, "thoughtful": 17873, "programme": 4644, "battalions": 11592, "While": 1799, "Whereas": 21614, "##uise": 15456, "\u1d47": 710, "reduction": 7234, "\u043e": 489, "\u09aa": 653, "##tory": 6207, "##\u03b7": 28344, "##usal": 25034, "are": 1132, "entries": 10813, "accidents": 14705, "ladder": 11413, "reporter": 6672, "##use": 5613, "inequality": 18610, "blending": 27104, "monstrous": 27000, "##\u30ca": 28848, "Rising": 11948, "Jason": 3627, "twists": 24008, "##rada": 22077, "expects": 27402, "Ranch": 14481, "Pick": 20984, "Seriously": 18725, "tropical": 5065, "##dalgo": 27128, "movies": 5558, "accordion": 22827, "drumming": 27025, "Round": 4200, "publishing": 5550, "Wild": 5469, "form": 1532, "yacht": 16449, "privately": 9045, "imports": 20171, "##\u0938": 28529, "##zhen": 21821, "split": 3325, "##ane": 6354, "##hane": 15296, "Kern": 25682, "Chang": 11497, "compliance": 14037, "advertisements": 15448, "seventeen": 10439, "Presley": 18386, "Bengals": 25884, "hike": 25401, "built": 1434, "nerve": 9071, "slalom": 28095, "##ju": 9380, "rational": 12478, "Evelyn": 13110, "Bharatiya": 27326, "1660": 19306, "Pig": 23350, "nickel": 20403, "presently": 16269, "0": 121, "1951": 3280, "spaces": 6966, "Jeanne": 15157, "representations": 16539, "251": 25101, "Hellenic": 25792, "buzzed": 23697, "210": 13075, "##stand": 18692, "working": 1684, "Neolithic": 22756, "Brooke": 11559, "strongly": 5473, "##dua": 25823, "##miring": 27693, "eligible": 7408, "immunity": 17523, "crosses": 7566, "Martin": 2405, "bark": 12001, "##umba": 25509, "\u00fb": 273, "530": 26260, "invade": 20118, "town": 1411, "##pect": 26426, "creek": 10791, "##dir": 15232, "Soldiers": 16587, "apart": 3966, "##lls": 9872, "##tary": 16198, "singers": 9500, "stab": 19428, "Papal": 26202, "##ark": 23822, "##back": 4197, "cab": 10347, "CDP": 8170, "tooth": 14051, "lineage": 14209, "aide": 17512, "##hon": 8613, "Eternal": 21342, "cones": 27712, "##Vs": 27979, "\u30ed": 972, "necklace": 13828, "discount": 23290, "##au": 3984, "##\u0578": 28432, "##kot": 27952, "##ffy": 12383, "Pedro": 7233, "Boogie": 27593, "Brigadier": 12159, "approximate": 17325, "Believe": 12457, "Arabic": 4944, "Vega": 17165, "projections": 25344, "Sox": 8913, "##oro": 14824, "##mple": 26318, "Faces": 25246, "Langdon": 16000, "Keeper": 24057, "Legislative": 5906, "##yana": 23732, "advice": 5566, "Eisenhower": 17616, "periphery": 27152, "Grimm": 27354, "key": 2501, "documentation": 14371, "##Dowell": 24316, "Pastor": 19744, "Norway": 4323, "312": 23101, "unpaid": 27134, "nowhere": 8251, "\u03ad": 415, "Vance": 17750, "Cassidy": 14190, "integration": 9111, "explain": 4137, "Warfare": 22394, "BWV": 26735, "159": 20485, "Darius": 15552, "Dinamo": 24780, "1850": 7493, "orbital": 16488, "prize": 4716, "Mumbai": 8601, "[unused44]": 44, "texts": 6685, "##OS": 9025, "##\u571f": 28899, "recited": 28071, "##gnesium": 27844, "forgetting": 20608, "passing": 3744, "upon": 1852, "pm": 9852, "intelligent": 9998, "Tammy": 21791, "merging": 17862, "reassure": 27879, "surveillance": 10900, "delays": 15308, "grapes": 19573, "##esh": 10654, "dash": 16605, "##\u0259": 28278, "wrapping": 13261, "hence": 7544, "\u00c8": 233, "##ped": 3537, "retain": 8983, "repairs": 10528, "brutal": 12800, "stood": 1866, "Classics": 14387, "Dar": 23612, "##itas": 23849, "##ndra": 17394, "##uate": 20043, "alumnus": 24761, "\u2282": 865, "##unts": 17430, "jewel": 23160, "##\u02e1": 28307, "seed": 6478, "tucked": 9094, "betrayed": 12546, "entitled": 3909, "##iano": 16265, "##phy": 22192, "harshly": 23236, "##wolf": 25380, "280": 13760, "Nightingale": 26007, "ma": 12477, "beginning": 2150, "##ista": 11663, "unconstitutional": 22468, "##uns": 17096, "Administration": 4918, "##croft": 12012, "Funding": 24811, "Valerie": 15788, "##cacia": 27576, "##\u300c": 28782, "##\u30b0": 28834, "mom": 4113, "capitalism": 20582, "inform": 12862, "##oki": 21420, "e": 174, "dangling": 20626, "evaluate": 17459, "##\u1ef1": 28667, "Just": 2066, "Dickens": 21677, "specimens": 9985, "##cape": 24517, "nationalists": 25170, "##genus": 27651, "##\u0625": 28473, "Turin": 14283, "Julie": 7129, "pine": 10194, "Established": 14633, "grabbed": 3182, "interaction": 8234, "Atlas": 12974, "##hic": 11239, "sketches": 14578, "##35": 19297, "Recorded": 13048, "Lois": 17002, "Edit": 18269, "Eight": 8371, "Bah\u00e1": 15216, "Cherry": 11328, "curriculum": 9403, "added": 1896, "table": 1952, "Reconnaissance": 18371, "##tes": 3052, "wins": 4646, "joining": 4577, "whereas": 6142, "shaped": 4283, "pioneering": 14024, "\u30d0": 958, "\u548c": 1002, "code": 3463, "##lew": 23513, "grains": 19707, "seals": 19551, "cleared": 5323, "##oire": 19013, "trapping": 26452, "telephone": 7314, "Saratoga": 25867, "feet": 1623, "##ned": 3540, "##nier": 12682, "##icker": 23666, "Dakota": 7241, "shopping": 6001, "retaliation": 20921, "supplied": 7694, "savings": 14095, "MacArthur": 21045, "##ddin": 24691, "throws": 11784, "regulations": 7225, "ordered": 2802, "Willie": 9676, "democracy": 9076, "##rams": 24818, "##anche": 23742, "Rankings": 22732, "##ress": 7370, "248": 27672, "##fast": 27704, "##olin": 27719, "Janeiro": 11502, "##pian": 22032, "Katz": 22795, "##urion": 27178, "\u10d4": 699, "\u7248": 1053, "incentives": 24273, "ends": 3769, "Ponce": 23349, "\u30bf": 948, "Rockets": 24249, "Plantation": 22849, "networks": 6379, "Member": 3844, "87": 5966, "##ennial": 16009, "##ub": 10354, "cm": 3975, "Durham": 8975, "Gloucester": 13695, "Corporate": 15978, "##pu": 16091, "Malik": 15147, "##qi": 17276, "Hospital": 3355, "seen": 1562, "##cimal": 27924, "33rd": 22906, "^": 167, "\u1d63": 721, "lottery": 23366, "Halloween": 15101, "playful": 20303, "McCarthy": 12780, "exciting": 11215, "Adobe": 25327, "matches": 2697, "##lve": 23534, "parents": 2153, "##ivity": 6366, "Allegheny": 23307, "##hibit": 23034, "Nuremberg": 21072, "treatise": 20594, "weeping": 24305, "People": 2563, "FK": 14954, "It": 1135, "##t": 1204, "Solar": 12700, "express": 6848, "##ii": 6904, "Congregation": 17560, "##\uff1a": 28995, "tightly": 6852, "journey": 5012, "Mi": 12107, "Dundee": 14796, "##moky": 22582, "excluding": 14243, "Trees": 20857, "Sergei": 15173, "Football": 2289, "ways": 3242, "Atlantic": 3608, "jointly": 10824, "manufacture": 10032, "Joaquin": 26261, "branches": 5020, "##lves": 14455, "##ken": 6378, "##\u01a1": 28264, "Albuquerque": 21037, "Brien": 9620, "Police": 3284, "explicitly": 12252, "##ta": 1777, "171": 19619, "##nir": 20461, "physical": 2952, "##wyn": 10349, "04": 5129, "##pad": 20425, "Foster": 7895, "succeeded": 3760, "bore": 8475, "##atic": 7698, "over": 1166, "contemplated": 25835, "millions": 9215, "features": 1956, "lawn": 12313, "1853": 8562, "sits": 7250, "##\u013d": 28231, "Fund": 6606, "1877": 7028, "Prophet": 19784, "Olga": 16514, "Atomic": 18662, "##ske": 17726, "AMC": 24810, "laughing": 5574, "Priest": 13246, "returning": 3610, "guided": 8610, "##ack": 8741, "##rmon": 26654, "140": 8183, "hairy": 18419, "flourished": 19249, "##olten": 28041, "desires": 15827, "##ores": 12238, "engined": 23391, "Preliminary": 26308, "chords": 22098, "##rease": 15691, "Quality": 14801, "##sir": 19496, "##eron": 28032, "##\u00dfe": 13750, "alive": 3534, "underneath": 7547, "audit": 23097, "always": 1579, "monarchy": 14358, "messy": 20549, "##\u00c9": 28187, "Clement": 13875, "curved": 8981, "left": 1286, "Universit\u00e9": 25955, "Qualification": 26298, "education": 1972, "##cca": 19495, "cigarettes": 16595, "patronage": 17326, "Wonderland": 23368, "Documentary": 13595, "vectors": 21118, "262": 24280, "processor": 14538, "Multiple": 17476, "initiatives": 11751, "\u00b2": 213, "clad": 14439, "##dek": 27170, "##eal": 13003, "morality": 19613, "##aga": 15446, "stakeholders": 26027, "##lows": 26044, "##\u1e0d": 28628, "##evi\u0107": 16491, "##qui": 18276, "rugged": 20179, "spire": 23887, "Nadu": 10657, "muttered": 5577, "premise": 20197, "Singh": 5329, "306": 27724, "consent": 9635, "loss": 2445, "poetry": 4678, "##rland": 20313, "##llum": 21275, "whiskey": 17714, "objection": 26017, "balcony": 12025, "wreckage": 24069, "Producer": 8033, "Pace": 24622, "unknown": 3655, "Lionel": 14957, "Savings": 25794, "rug": 23458, "Monastery": 14098, "##rina": 9324, "Nagar": 18704, "##woods": 24550, "trend": 10209, "##\u00d1": 28190, "tattoos": 20867, "Defensive": 21368, "##mined": 15842, "salesman": 23259, "##ounced": 24276, "likes": 7407, "##lance": 13831, "preoccupied": 27382, "Markus": 26085, "twelve": 4030, "gesturing": 25250, "Beijing": 6671, "against": 1222, "begins": 3471, "Ultra": 17781, "##burg": 3410, "providers": 12263, "Sharpe": 24566, "##\u30df": 28857, "212": 19538, "Hepburn": 24340, "##rn": 4558, "##inhabited": 27784, "cites": 20417, "bedrooms": 20216, "##\u062e": 28481, "\u571f": 1006, "Louise": 7790, "##thy": 15644, "smoked": 23235, "poster": 14525, "accounting": 11438, "##ze": 3171, "introduction": 4784, "Libya": 13135, "Box": 9167, "##dote": 26595, "housed": 6960, "Gong": 23703, "structures": 4413, "heroine": 23264, "\u306a": 913, "explains": 7155, "Nuclear": 11560, "competing": 6259, "overview": 24431, "Bradshaw": 26608, "##eering": 15536, "##runner": 14627, "Monthly": 17300, "2d": 25712, "##SE": 12649, "\u0250": 353, "sessions": 6887, "spectators": 12902, "mortgage": 16935, "Laboratories": 23874, "America": 1738, "trial": 3443, "\u0f51": 687, "Stephens": 15752, "seeming": 17511, "##iring": 14641, "Ira": 21109, "1910": 4178, "Dublin": 5062, "Roger": 4271, "195": 18500, "tsunami": 24212, "Hussein": 17605, "Berlin": 3206, "hurt": 2644, "1952": 3130, "cope": 16743, "##wind": 11129, "Dixon": 11372, "IP": 14274, "speakers": 7417, "Advanced": 8445, "array": 9245, "##human": 15319, "##root": 27906, "Provost": 27920, "Policy": 7037, "listed": 2345, "##gles": 15657, "contracts": 8216, "shore": 5781, "fascist": 22402, "feeling": 2296, "##rome": 11457, "\u30b0": 941, "\u300c": 889, "##tic": 2941, "logic": 8738, "readings": 17813, "Herzegovina": 11464, "conviction": 10774, "##cus": 6697, "shortages": 25630, "lipstick": 28005, "##\u00fd": 13933, "topic": 8366, "strained": 12448, "##\u00f4": 28206, "##eper": 25136, "driver": 3445, "##oi": 8136, "impaired": 20606, "Recording": 10213, "##weiler": 23768, "Norton": 10685, "tilting": 26954, "Ken": 5928, "Brasil": 23381, "potentially": 9046, "Kentucky": 4875, "Rollins": 26255, "perspective": 7281, "hockey": 4700, "##ha": 2328, "licence": 12155, "##nagar": 14734, "Waller": 26362, "thence": 26972, "forth": 5275, "portion": 3849, "accessories": 18658, "famine": 20859, "Rafe": 16808, "Jana": 26415, "##ahn": 25963, "Torres": 13428, "520": 21338, "Serbia": 6689, "orphanage": 22899, "\u025b": 358, "360": 9174, "murals": 21589, "Missile": 19794, "##iidae": 19793, "##tly": 8671, "grateful": 9473, "sadly": 17156, "##uen": 23404, "verify": 23073, "digit": 16521, "newscasts": 27718, "800": 4645, "diseases": 8131, "##ckle": 19053, "Vision": 11724, "Suffolk": 12436, "vampire": 3980, "Graf": 25125, "comeback": 14019, "tablet": 16048, "Free": 4299, "##inger": 7728, "vegetable": 17690, "computational": 19903, "motive": 17941, "##bones": 21672, "##\u2091": 28721, "Electric": 6763, "translator": 12111, "Jewish": 2778, "##craft": 8444, "Men": 3401, "preserve": 8333, "1886": 6332, "Alexandre": 18094, "Equal": 26933, "Connor": 6121, "##ess": 5800, "Saga": 18913, "daylight": 13258, "subdivided": 16224, "spokesman": 15465, "##ey": 2254, "originate": 24077, "1876": 6789, "decade": 4967, "Single": 8353, "imagined": 7683, "Bit": 27400, "grand": 5372, "Does": 7187, "gentle": 6892, "Stanford": 8036, "##ated": 2913, "wheeled": 18897, "Magazine": 4341, "operational": 6519, "moniker": 24395, "turn": 1885, "spells": 12168, "Islanders": 21574, "inverse": 22127, "entered": 2242, "Absolutely": 24107, "\u013d": 303, "Chen": 8742, "infamous": 15881, "Lin": 12221, "posters": 16300, "Carolina": 2938, "powerful": 3110, "Vlad": 20868, "ambushed": 24722, "time": 1159, "##ea": 4490, "Fun": 16068, "undead": 21979, "adults": 6323, "move": 1815, "velvet": 15438, "evidently": 20178, "tugging": 19029, "Lama": 21795, "##\u4f8d": 28882, "##\u05e1": 28461, "rows": 10389, "myth": 12849, "Lenny": 20740, "fossil": 11671, "49ers": 19531, "##V": 2559, "catalogue": 13571, "rainfall": 10465, "##rieve": 27055, "microwave": 21865, "##abi": 23156, "Root": 26131, "transformed": 8272, "Pharmacy": 24774, "##oting": 13460, "newest": 15649, "anticipated": 11526, "Role": 17094, "\u0113": 289, "\u2194": 846, "Obama": 7661, "absolute": 7846, "ransom": 25057, "##\u5b80": 28908, "resource": 9100, "sends": 10130, "exceptions": 12408, "erupted": 12773, "Chiang": 19110, "email": 10632, "solvent": 27624, "literal": 20351, "efficient": 7856, "castles": 19282, "Polar": 25848, "spurred": 26222, "##hat": 11220, "##idal": 13293, "##loss": 20831, "up": 1146, "[UNK]": 100, "electrons": 16159, "emigration": 24806, "##\u1ec7": 28651, "\u0435": 480, "##owski": 13379, "imported": 11095, "##lis": 6137, "##hm": 18208, "runway": 9822, "##uren": 22920, "distinguish": 10706, "linguist": 26914, "nodding": 13393, "##ison": 7614, "##plate": 16671, "##dler": 18078, "##ulata": 23811, "arrest": 6040, "Arabia": 8945, "showed": 2799, "21st": 6880, "gazed": 11107, "Miami": 4916, "##\u4e0b": 28872, "##ition": 8934, "units": 2338, "why": 1725, "##das": 9028, "##ccelerator": 26154, "##hing": 8840, "whales": 21434, "Buy": 26123, "replication": 25544, "Path": 17392, "##ller": 9860, "hardest": 20773, "descend": 20649, "##feit": 23221, "Edwin": 9854, "assists": 8407, "Soap": 26019, "costing": 25522, "champions": 5461, "Switzerland": 4507, "Candy": 16045, "##sace": 28072, "interim": 10572, "substantial": 6432, "bamboo": 19062, "##ota": 16339, "spend": 4511, "##owa": 24611, "##tham": 14988, "1978": 2406, "##yme": 26911, "##wright": 12723, "junk": 22323, "##endra": 22283, "##yo": 7490, "Angie": 15612, "vase": 26100, "View": 10344, "##irn": 23905, "judgement": 21261, "falling": 4058, "Tavern": 25829, "programmed": 18693, "Ville": 26119, "[unused98]": 98, "##eiro": 20894, "instrumentation": 19391, "inaugurated": 11327, "check": 4031, "Una": 24258, "Harbour": 10770, "clergy": 12538, "##IT": 12150, "##blivion": 26962, "History": 2892, "##\u0540": 28424, "##pler": 20687, "Snyder": 19181, "Metacritic": 15168, "40": 1969, "release": 1836, "t": 189, "\u2013": 782, "glow": 8656, "virtually": 9024, "[unused101]": 105, "##cha": 7147, "measurements": 12307, "occupation": 5846, "##link": 13255, "boarded": 18666, "preferring": 24075, "shaking": 5121, "Tatiana": 25320, "##agi": 27547, "##\u0169": 28250, "mother": 1534, "abdominal": 24716, "smallest": 10471, "leader": 2301, "stand": 2484, "Unit": 6115, "310": 18333, "Kazan": 24427, "Escape": 17822, "Sainte": 18247, "Clara": 10200, "is": 1110, "##uy": 20257, "stores": 4822, "invalid": 22475, "##J": 4538, "bills": 10020, "temporarily": 7818, "consultation": 18261, "##tuated": 26014, "Realm": 21248, "213": 21640, "Theme": 14999, "##ropriation": 25406, "emerges": 21190, "instructions": 7953, "assured": 8642, "I": 146, "census": 2314, "totaling": 24224, "##jure": 28014, "Collection": 6712, "archaic": 26152, "wandering": 14848, "song": 1461, "footballer": 3585, "parish": 3363, "revenge": 7972, "beam": 7574, "##writer": 13814, "Troop": 18020, "##ested": 24732, "##azar": 25329, "Tacoma": 25588, "Published": 15807, "away": 1283, "##\u201c": 28691, "espionage": 25652, "justification": 22647, "##\u30b5": 28836, "Payne": 13802, "DB": 24044, "unconscious": 9719, "IRA": 16561, "##tl": 26414, "quit": 8204, "OF": 11345, "Jayne": 27469, "messed": 20147, "willing": 4988, "##cribe": 17770, "hormones": 23602, "choreographer": 20999, "realization": 13192, "receptors": 14392, "defendants": 18047, "cannon": 12136, "loaned": 13607, "##fighting": 24663, "##\u03c6": 28357, "Killing": 19949, "##leigh": 12185, "expressing": 14819, "clergyman": 25215, "surveyed": 13186, "##hima": 16340, "lip": 4764, "##nti": 14964, "Maximilian": 20416, "sheriff": 11398, "##ropic": 27098, "##ales": 19856, "blurted": 20291, "beings": 9476, "slain": 21866, "##mic": 7257, "Dude": 22995, "afterwards": 6091, "##un": 3488, "safely": 9510, "Wonder": 10991, "consonant": 20037, "excelled": 25749, "Operations": 7273, "youths": 23149, "bat": 7693, "Cavendish": 26371, "Vehicle": 19357, "palms": 9797, "##\u10d8": 28603, "weights": 17981, "atoms": 14296, "Historian": 21316, "Bois": 23949, "##plane": 10648, "premier": 11591, "ruined": 9832, "86": 5942, "##lee": 6894, "##powering": 26703, "Alt": 14983, "##\u02b0": 28297, "twenty": 2570, "Representative": 7725, "diagnosed": 11534, "Bridge": 3640, "Goodman": 15143, "villages": 4024, "\u1ecd": 751, "stallion": 24434, "Wish": 18861, "##wen": 10781, "##maging": 26772, "##,": 28136, "homage": 16734, "routing": 19044, "kicker": 27219, "##wy": 17953, "Cairo": 11086, "Philips": 20810, "\u20ac": 836, "hollow": 11134, "too": 1315, "Igor": 15293, "##ax": 7897, "gameplay": 11716, "bodily": 23006, "##\u0130": 28229, "##truct": 23055, "sex": 2673, "doctor": 3995, "invisible": 10062, "triggered": 13746, "##luk": 17086, "pulmonary": 26600, "outcome": 9386, "Flower": 14742, "##nife": 23373, "fairies": 26679, "##heimer": 19263, "##ients": 24767, "which": 1134, "property": 2400, "Before": 2577, "bust": 16118, "attacks": 3690, "winged": 16282, "telling": 3344, "collided": 19060, "grunt": 24673, "piss": 20693, "Leto": 27999, "Irene": 13524, "154": 17733, "\u58eb": 1008, "airing": 10477, "lime": 18669, "\u0458": 510, "##bee": 11891, "##tations": 18837, "##\u0bb0": 28579, "Tasmania": 12484, "Notable": 11017, "Kelsey": 23111, "##tronomy": 25814, "ecosystem": 19534, "\u03c4": 437, "voiced": 7350, "turbulent": 26510, "pirates": 14978, "##bul": 27515, "Jam": 13263, "transferred": 3175, "container": 12461, "##lenching": 26873, "municipality": 2667, "1953": 3185, "311": 26277, "asked": 1455, "Okay": 3956, "AFB": 18017, "informal": 12492, "Wet": 27855, "process": 1965, "known": 1227, "Conservatory": 14074, "##shaw": 17630, "Time": 2614, "filly": 27090, "WTA": 24253, "Montana": 7976, "bike": 8295, "convert": 10454, "##ora": 6533, "heaven": 9775, "##ice": 4396, "Clinical": 15961, "Springfield": 10363, "Authority": 5987, "dropping": 7367, "technician": 22242, "molecules": 10799, "\u306b": 914, "Changes": 21395, "affects": 13974, "carefully": 4727, "creditors": 26814, "lobes": 27645, "investing": 23379, "pitch": 6158, "prominent": 3289, "Liz": 8719, "##ving": 3970, "##\u05b9": 28443, "\u5409": 1000, "##acy": 15347, "silly": 10729, "\u30b3": 942, "coordinates": 12570, "##ean": 7766, "##up": 4455, "Girl": 4537, "playable": 18197, "cue": 18780, "inappropriate": 17073, "Melville": 21969, "##ado": 9359, "\u039f": 406, "circle": 4726, "gods": 6807, "Roma": 13120, "##rica": 15353, "chase": 9839, "##gle": 6415, "adjusting": 21763, "Daily": 5732, "Spartan": 24338, "##\u0103": 15287, "##odes": 19419, "Terror": 15618, "haul": 16238, "Used": 17627, "##monia": 21667, "under": 1223, "##rion": 12395, "y": 194, "Gender": 21108, "Dialogue": 26004, "playoffs": 7736, "dams": 20245, "##ube": 15209, "Millennium": 14898, "thumbs": 18680, "Johnson": 2921, "litre": 18736, "modernization": 25145, "##ilton": 21970, "harassment": 17514, "##\u05d1": 28446, "##roa": 27380, "1891": 6002, "congressional": 10974, "Grace": 4378, "##dam": 10775, "##kley": 19490, "##TL": 20156, "##ive": 2109, "##fts": 22863, "##\u00e1rez": 21823, "##eted": 27860, "Restoration": 15988, "specify": 22829, "booking": 26059, "vault": 13454, "attractions": 14312, "angular": 17553, "\u099c": 646, "##verse": 10840, "freshwater": 13800, "bodies": 3470, "Dow": 26535, "##low": 6737, "##ri": 2047, "Goldman": 19085, "##ulture": 15936, "Guerrero": 18079, "Poet": 22381, "Anthony": 4140, "Hayes": 10011, "Flute": 25058, "insert": 22884, "religions": 13239, "1821": 11749, "CC": 21362, "drastic": 27735, "##viator": 26680, "sources": 3509, "barriers": 14317, "\u00f0": 262, "##dea": 18747, "##guous": 22928, "##zled": 21524, "Bronze": 9385, "illegal": 5696, "suspended": 6232, "extinction": 16137, "notch": 23555, "Gonzalez": 21125, "very": 1304, "##iform": 20226, "Carr": 12639, "cruiser": 12680, "Out": 3929, "saint": 10916, "##tist": 12948, "Manny": 17381, "##amine": 19577, "archipelago": 21255, "Sailing": 26062, "##\u00e4t": 27888, "haven": 3983, "kHz": 19125, "kingdom": 6139, "Video": 6301, "curve": 7660, "Mal": 18880, "proclamation": 22684, "##\u00e8": 27113, "climb": 6767, "learning": 3776, "##ese": 6420, "Event": 16223, "Pitchfork": 27186, "IS": 19432, "##\u767d": 28951, "##mitage": 27811, "buttons": 11760, "##ends": 22367, "Very": 6424, "Cardinal": 8538, "grinning": 12332, "Marriage": 16032, "tonnes": 10992, "schedule": 6030, "auction": 11046, "Boss": 15103, "tower": 3590, "hadn": 2018, "##RO": 21564, "##boarding": 24631, "Havilland": 26952, "##\u91d1": 28972, "##sian": 11890, "drilled": 27504, "manufacturer": 7400, "Stade": 16634, "reelected": 23575, "expanse": 26453, "##building": 12851, "##mmal": 27568, "1700": 17647, "##tem": 18408, "annoyance": 19236, "inadvertently": 23438, "Online": 10523, "##\u9580": 28974, "Trevor": 8282, "crazy": 4523, "McBride": 20738, "Sparta": 23479, "shock": 4900, "Jesuit": 14335, "\u0165": 326, "##\u0435": 19692, "amalgamation": 25016, "divorced": 8963, "Andrews": 8946, "##makers": 11877, "##\u02e2": 28308, "Cerambycidae": 13449, "##xial": 27361, "refer": 5991, "strongest": 11112, "escaping": 13755, "evil": 4719, "##list": 7276, "\u1e29": 730, "based": 1359, "organs": 11932, "##phine": 21587, "ranks": 6496, "##vention": 21987, "##rls": 26288, "[unused69]": 69, "gains": 12535, "witches": 15400, "Mean": 25030, "##imator": 23021, "module": 13196, "Susan": 5640, "##cloth": 25940, "jealousy": 16082, "retire": 11067, "calculating": 23172, "replay": 18723, "##lough": 14704, "Chapel": 7557, "##iating": 25148, "##\u00fas": 22521, "heavily": 3777, "##ck": 2158, "discharge": 12398, "Springer": 18919, "Gerry": 15636, "##ache": 12804, "Belinda": 27700, "Brigham": 25278, "tenth": 8281, "continuous": 6803, "define": 9410, "US": 1646, "Federal": 3467, "##hy": 7889, "eleventh": 14079, "##\u1d4f": 28617, "##\u00ebl": 17259, "176": 20039, "victim": 6410, "southernmost": 24608, "abolished": 8632, "##mile": 17893, "Noble": 13396, "complaint": 12522, "knot": 13094, "real": 1842, "##maker": 8085, "stamps": 13321, "Independence": 7824, "##0s": 13031, "growled": 8518, "Wong": 12021, "tolerance": 15745, "caller": 25780, "\u0105": 281, "##ord": 6944, "transformation": 9047, "alien": 8143, "McLean": 19271, "attach": 25337, "Ch\u00e2teau": 19281, "Angelina": 26876, "##\u2096": 28725, "ignition": 20447, "sailors": 12428, "winked": 14770, "##\u0391": 28315, "##sible": 24355, "brother": 1711, "##lation": 6840, "besides": 8655, "##uman": 19147, "Arts": 2334, "##pia": 15748, "typhoon": 27350, "Sarajevo": 19788, "\u03cc": 443, "Medicine": 5734, "breast": 7209, "##ila": 8009, "dick": 14458, "##iology": 17288, "predominantly": 8941, "##ulator": 19410, "ochreous": 26187, "Away": 9252, "NAS": 25165, "extending": 8177, "##ML": 19332, "##breaker": 21503, "tanker": 24096, "##\u2286": 28760, "situation": 2820, "Saturn": 15476, "instant": 6879, "Loyola": 23828, "\u00f7": 269, "State": 1426, "Verdi": 22703, "Kyoto": 16083, "turtle": 19570, "States": 1311, "charts": 5896, "battles": 7619, "##ismic": 24864, "228": 24618, "Attendance": 6868, "coined": 13674, "##nted": 16736, "apprentice": 17092, "partner": 3547, "Nancy": 7444, "ET": 27269, "Maia": 26685, "Capitol": 9838, "##mmy": 16211, "Quaker": 20536, "##sities": 28060, "hosting": 9882, "##sey": 8780, "##brush": 20248, "1974": 2424, "Crime": 10725, "##psy": 12685, "Harriet": 14766, "sprinter": 24360, "crowned": 10290, "Swamp": 25723, "##cluded": 23498, "Natasha": 18612, "Semitic": 24447, "Taste": 27589, "Economic": 6051, "pulled": 1865, "eventually": 2028, "##zard": 18551, "##ra": 1611, "Mara": 14973, "##brand": 25123, "##truction": 17993, "milestone": 24697, "remnants": 11834, "\u0637": 581, "fewer": 8307, "momentarily": 17429, "Outstanding": 7196, "Len": 22824, "bitch": 7979, "Analysis": 12504, "caliber": 17836, "##OW": 17056, "figuring": 27862, "breach": 13275, "desert": 6941, "weeks": 2277, "lodged": 22422, "lurched": 24319, "cloak": 12923, "##orms": 25972, "Revelation": 26374, "Sahib": 27556, "grouping": 23291, "pulpit": 28079, "##shu": 16138, "##une": 10038, "fixtures": 19219, "amphibious": 20966, "Massachusetts": 3559, "\u897f": 1070, "tank": 4890, "Phyllis": 22244, "Success": 25911, "##\u0448": 28410, "Bo": 9326, "Lucas": 5675, "balanced": 12591, "Seas": 24281, "##kins": 9615, "\u0447": 498, "##ept": 15384, "Pembroke": 23647, "stem": 8175, "detective": 9140, "reclaimed": 26224, "partially": 6320, "##hari": 16234, "##asing": 17764, "carnival": 21446, "##\u66f8": 28929, "With": 1556, "internationally": 7460, "imitation": 24190, "##x": 1775, "\u00bc": 222, "##oly": 23415, "Crewe": 24607, "lying": 4009, "mole": 26365, "studies": 2527, "Sunrise": 23900, "##\u05d3": 28448, "Romero": 19731, "390": 21830, "firearms": 16025, "concern": 4517, "##noy": 21244, "birthday": 5913, "Dartmouth": 18069, "##oint": 21506, "\u017a": 335, "Mail": 11508, "Brock": 14389, "##cale": 20532, "USA": 3066, "[unused41]": 41, "starred": 4950, "##film": 25340, "directly": 2626, "Scale": 20334, "McKenzie": 20269, "##bad": 8330, "banking": 9339, "Harvard": 5051, "eighth": 6075, "Survey": 8157, "Aircraft": 9710, "##aper": 19655, "feather": 21013, "wiped": 7960, "Midlands": 13869, "forested": 16044, "##\u00de": 28197, "generates": 21241, "commanded": 5724, "Prescott": 22721, "tunnel": 5280, "Drivers": 23004, "muscular": 14310, "bankrupt": 19004, "fielded": 23142, "length": 2251, "frog": 13670, "circulation": 9097, "Physics": 8937, "Rutherford": 19936, "##hout": 24284, "paperwork": 18989, "Raw": 14108, "Kaufman": 26517, "imminent": 19080, "Programs": 18555, "millennium": 17928, "Extra": 18684, "insisting": 25504, "##ease": 23860, "##tten": 25990, "Tristan": 9665, "##ira": 5132, "Giuseppe": 12752, "simultaneous": 19648, "Limited": 5975, "Estates": 23023, "Motor": 8226, "##rudge": 27577, "Controller": 28104, "Czechoslovak": 23409, "amenities": 23134, "himself": 1471, "punt": 22498, "\u062f": 573, "cultivation": 13958, "guest": 3648, "horror": 5367, "##own": 13798, "repertoire": 14674, "standing": 2288, "emotions": 6288, "date": 2236, "On": 1212, "nobility": 12276, "artillery": 6201, "portrayed": 6313, "flour": 15068, "theater": 5184, "monk": 12112, "suitcase": 17655, "departments": 7844, "acceptance": 10030, "##ception": 19792, "Fountain": 19873, "mistakenly": 22893, "ensuing": 14332, "Franciscan": 21183, "scowl": 21840, "##bery": 19941, "##opy": 22753, "large": 1415, "financing": 13080, "\u05db": 545, "Gabrielle": 18145, "High": 1693, "basis": 3142, "\u300a": 887, "combinations": 16058, "simpler": 17633, "Mathias": 22492, "carried": 2446, "##ifiable": 20643, "Societies": 24593, "##mott": 27374, "dangerously": 24529, "##nological": 22176, "##warm": 18900, "Balkans": 21498, "setup": 18011, "resided": 12621, "slender": 11226, "celebrating": 14118, "##tudes": 22764, "si": 27466, "\u1d49": 712, "overrun": 28025, "enthusiasm": 12430, "unions": 10230, "##rdi": 16936, "Joanna": 16934, "##dan": 6778, "1966": 2678, "conserved": 21996, "##hawk": 19952, "exact": 6129, "Bristol": 6490, "##24": 19598, "nutrients": 22667, "##is": 1548, "##\u00d7": 28193, "McKenna": 24274, "doctrine": 9978, "\u06d2": 604, "##DR": 17308, "Godfrey": 19635, "blockade": 17567, "##mology": 19969, "##ygiene": 21431, "habitats": 10902, "although": 1780, "relationships": 6085, "##ech": 11252, "Gloucestershire": 16832, "##brae": 25171, "##\u0ba4": 28575, "\u2191": 844, "Memory": 14500, "inquiry": 12064, "HK": 25660, "lower": 2211, "salute": 22321, "Schmidt": 13167, "calmly": 13285, "Ko": 19892, "Perkins": 13968, "Let": 2421, "Turtle": 26024, "chips": 13228, "Sep": 23181, "Jo\u00e3o": 18139, "company": 1419, "goods": 4817, "##\u72ac": 28947, "\u0bb0": 676, "sobs": 24523, "Hannibal": 27197, "Bali": 22403, "altogether": 11257, "murmur": 22895, "##\u05dc": 28456, "ah": 18257, "##vila": 23909, "##ych": 21155, "\u1e0d": 726, "1999": 1729, "\u00c4": 229, "Argentina": 4904, "slap": 15933, "Offensive": 17354, "punches": 19739, "##\u03b5": 28342, "Antoine": 12612, "Layton": 25765, "biodiversity": 23797, "completely": 2423, "Roads": 13690, "tent": 9459, "Partner": 24961, "differ": 11271, "Kramer": 17615, "Copyright": 22359, "##>": 28144, "Spain": 2722, "Lover": 20501, "Union": 1913, "Crescent": 17919, "Bloomberg": 25638, "##rie": 5997, "hum": 21820, "\u300b": 888, "enjoying": 8965, "Forbes": 10754, "##bit": 9208, "Philharmonic": 12615, "celebrities": 13073, "##hwa": 24156, "argument": 6171, "Exhibition": 9336, "Given": 10470, "Emmanuel": 15067, "sermons": 26367, "##mmoth": 26543, "hunt": 8263, "Peabody": 21826, "specified": 9467, "Language": 6828, "defect": 23912, "Jensen": 15535, "Without": 4914, "##\u2078": 28708, "##dor": 8380, "feudal": 18594, "##lam": 7609, "proudly": 19829, "##fter": 20962, "cathedral": 8846, "experimenting": 27193, "##rda": 18484, "##rows": 20876, "upgrades": 20889, "backdrop": 20552, "Burr": 27473, "##\u1ee3": 28660, "pregnancy": 10203, "folding": 13748, "called": 1270, "place": 1282, "##pes": 6633, "whites": 15185, "[unused29]": 29, "rope": 8090, "Judith": 13131, "Houses": 16862, "Juliette": 27890, "Commandant": 22291, "DC": 5227, "##pies": 15108, "##\u0107": 7128, "sickness": 17663, "YOU": 19141, "Leave": 11255, "Cinderella": 24139, "comedian": 10475, "Kingsley": 25393, "insignia": 19063, "##\u00e7a": 15331, "hers": 4364, "##boy": 9858, "##head": 3925, "flash": 6746, "sprint": 12766, "fact": 1864, "Abigail": 17014, "sinks": 27004, "Volvo": 23212, "captains": 20672, "handkerchief": 27570, "Pride": 12614, "USC": 16403, "Ji": 13997, "##gating": 18401, "demon": 5725, "whatsoever": 20748, "disagreements": 26805, "clung": 15409, "traitor": 20365, "You": 1192, "##slav": 26142, "Lancaster": 10054, "foods": 11785, "117": 12737, "Amsterdam": 7101, "Becky": 15009, "oblivious": 20667, "##ises": 13733, "indoor": 9287, "\u0153": 316, "acts": 4096, "Alexei": 23378, "argues": 8935, "Admiralty": 15563, "preferences": 20935, "##roth": 21941, "Honestly": 23686, "Suzanne": 15915, "junior": 4635, "McIntyre": 27873, "laptop": 12574, "Gaming": 21161, "Martha": 8996, "fleet": 4535, "ego": 15550, "Lands": 17854, "Outer": 18539, "seminary": 17403, "Lyndon": 25700, "collecting": 9370, "ability": 2912, "Above": 12855, "ended": 2207, "likelihood": 17843, "filled": 2709, "Portland": 6141, "##tles": 14629, "##sting": 19584, "Gardiner": 23272, "wished": 5608, "nautical": 11894, "guide": 6388, "fibers": 18064, "prevented": 8369, "Area": 3894, "345": 26625, "circuit": 6090, "contingent": 17286, "##ueva": 24048, "sponsored": 5988, "Chuck": 7803, "friend": 1910, "##thus": 23556, "##\u043e\u0432": 24625, "##late": 8052, "Deal": 15361, "##ors": 3864, "Yao": 27762, "\u03c6": 439, "Phone": 26385, "pardon": 19015, "warns": 21310, "Amos": 14341, "Idaho": 9559, "sliding": 7989, "##hound": 16930, "draws": 9804, "probably": 1930, "##ling": 1979, "sustained": 8505, "Acheron": 23636, "realized": 2788, "Kat": 10785, "jerked": 7821, "lyrical": 18799, "##zio": 13409, "costumes": 13452, "rulers": 11507, "Plans": 17171, "##ki": 2293, "Yeah": 2814, "##board": 4015, "##tial": 16764, "gaining": 8289, "Distinguished": 8972, "Shanghai": 7962, "##bridge": 6152, "northernmost": 24873, "metallic": 13256, "rattled": 21117, "Jimmie": 27806, "Unknown": 16285, "wishes": 8921, "touchdown": 7575, "Till": 22430, "anywhere": 5456, "universities": 5659, "colonel": 9431, "##icular": 20899, "Doll": 25137, "##ructural": 27886, "##ughter": 26760, "Middlesbrough": 23917, "assault": 5937, "shaft": 9202, "Holy": 3930, "groan": 13344, "grin": 5207, "\u060c": 559, "Rather": 11056, "ever": 1518, "##\u30e3": 28859, "actress": 3647, "Reaper": 23696, "##nan": 6509, "conferences": 9759, "##EN": 11680, "understands": 21744, "accessible": 7385, "##\u0444": 28406, "##ltry": 21001, "##hr": 8167, "Habsburg": 18729, "jackets": 27310, "Buddy": 11999, "##hana": 17013, "jazz": 4888, "Too": 6466, "Hello": 8667, "Editor": 9057, "##won": 16732, "##FC": 12323, "Luke": 4599, "##por": 18876, "Axis": 17831, "digits": 17937, "Nigel": 13026, "[unused7]": 7, "##SI": 13882, "rested": 8237, "Nix": 26880, "kits": 21195, "tensor": 27023, "unnecessary": 14924, "strike": 4585, "Nationalist": 18018, "##plified": 18580, "##\u0161i\u0107": 23571, "\u1e5b": 735, "##cedural": 27433, "Pearce": 21302, "Gibraltar": 12410, "Towers": 17879, "beverage": 24802, "##heist": 25811, "parking": 5030, "\u044e": 505, "##\u2084": 13925, "##\u306a": 28806, "##ika": 7223, "Road": 1914, "had": 1125, "##sher": 15410, "mixes": 25013, "\u53e3": 997, "raids": 11426, "headache": 16320, "##pation": 22578, "PR": 11629, "##ule": 8722, "operative": 13035, "stiffened": 17068, "480": 18478, "rapidly": 5223, "##\u0418": 28374, "##nking": 20698, "labeled": 12893, "34th": 22361, "##\u82b1": 28961, "vampires": 6039, "Reno": 19139, "rebellious": 25935, "Kirby": 15899, "##mps": 15279, "Friday": 5286, "steam": 5543, "\u043c": 487, "512": 27445, "cops": 11396, "##ins": 4935, "Lecture": 22842, "werewolves": 22730, "citation": 19548, "##iji": 23784, "Cheyenne": 19095, "statements": 8477, "##wat": 20543, "Worldwide": 20062, "prevalence": 22760, "##anu": 19762, "Heroes": 11312, "completing": 7332, "refrigerator": 20035, "insane": 10049, "##ike": 13012, "darts": 26581, "induced": 10645, "Eve": 6721, "##p": 1643, "##SN": 24597, "heaved": 21766, "muzzle": 19751, "##ssion": 16656, "##barian": 28105, "1991": 1984, "dialogue": 8556, "Beer": 16380, "Bologna": 14865, "##teen": 10381, "convince": 7627, "combining": 12459, "captain": 3495, "Milwaukee": 8850, "##rer": 14906, "courthouse": 15608, "spacecraft": 12568, "depicting": 10726, "##see": 18628, "Ser": 19536, "forcibly": 23129, "reunion": 14150, "Aye": 16837, "pledge": 20335, "##dine": 10399, "increase": 2773, "allowed": 2148, "##icorn": 23941, "##uerre": 27707, "##BS": 9782, "remark": 19422, "##lix": 20711, "philosophy": 5027, "Qin": 22495, "1914": 3710, "doom": 26375, "heavenly": 26891, "interviewed": 10361, "Americans": 4038, "Vanessa": 13553, "Egg": 25861, "Dylan": 7266, "Dai": 23084, "mapping": 13970, "\u209b": 833, "##\u030d": 28312, "##\u01ce": 28266, "Brand": 12381, "investigation": 4449, "##bang": 25903, "Scouting": 22768, "Julia": 5829, "Oakland": 8847, "Beaux": 24651, "handing": 13712, "##rise": 17789, "transgender": 20141, "gripped": 9430, "promoter": 17110, "electronics": 11216, "intellectual": 8066, "assassinated": 17493, "##rrick": 27511, "Pomerania": 20152, "Architecture": 9021, "barrel": 8482, "Horn": 11684, "Agatha": 26854, "##azi": 19888, "Wells": 7909, "##\u1ed1": 28654, "##ico": 10658, "Se": 22087, "Vincent": 5665, "adjustment": 23427, "Verlag": 15226, "pope": 17460, "maturity": 18462, "synthesis": 11362, "jet": 8319, "transitions": 26829, "realizing": 10459, "##rew": 11899, "##\u0902": 28508, "##\u02bb": 28301, "\u4e2d": 980, "Additional": 8154, "hushed": 27253, "elected": 1809, "\u062d": 571, "Sandra": 13114, "era": 3386, "##jected": 24653, "since": 1290, "dynamic": 9652, "may": 1336, "##ager": 12344, "playfully": 25350, "##pore": 21370, "Loving": 24141, "Fen": 27868, "decline": 6246, "##rix": 14799, "##ude": 10308, "preaching": 20850, "frigates": 26215, "Prize": 3449, "7th": 4766, "report": 2592, "Senate": 3279, "barrier": 9391, "Rover": 16823, "Jew": 17706, "En": 13832, "fields": 3872, "##sia": 6370, "secured": 6561, "welcome": 7236, "##end": 6696, "dancer": 9227, "further": 1748, "Soviets": 16359, "##chel": 20492, "288": 27998, "##bla": 18075, "Medium": 19250, "convict": 24770, "Graphic": 24318, "textbook": 18977, "traps": 18743, "##rri": 14791, "des": 3532, "combined": 3490, "##\u2076": 28706, "Baden": 12311, "##rap": 14543, "doubles": 7952, "##23": 22737, "potential": 3209, "##ics": 4724, "du": 3840, "recent": 2793, "##dox": 15942, "Sue": 11728, "demand": 4555, "##\uff0f": 28994, "safe": 2914, "ignorance": 21326, "##ced": 9650, "##master": 6532, "console": 10662, "##stered": 25924, "drains": 20681, "Fisher": 8476, "##ynamite": 24027, "hurricane": 10610, "##fiction": 26778, "cheap": 10928, "Rocks": 17198, "##ucks": 21515, "[unused79]": 79, "##\u00e6": 28200, "Mercury": 10080, "formal": 4698, "JP": 18283, "intimate": 10666, "##MU": 21219, "##ak": 3715, "##\u751f": 28949, "Watching": 21570, "1993": 1949, "negative": 4366, "Ethiopia": 11132, "gesture": 8982, "pipes": 13655, "persuaded": 11879, "Spanish": 2124, "##\u0127": 28226, "Jace": 10216, "Viper": 24010, "blond": 8781, "##sko": 20428, "knee": 5656, "viruses": 20942, "Westphalia": 25562, "commenting": 18912, "##nica": 13109, "Season": 5623, "backup": 10441, "government": 1433, "Wolves": 16484, "Freedom": 6483, "landscapes": 14026, "Higher": 7715, "unto": 23165, "##elo": 19773, "courtyard": 10629, "SEC": 15374, "Concord": 18314, "simulcast": 22820, "coincide": 21439, "jury": 7141, "##life": 14430, "fellowship": 16901, "quest": 12485, "reliability": 17104, "sport": 4799, "Gunner": 21913, "Beverly": 12352, "apps": 23875, "NSW": 11557, "##ered": 5686, "teens": 15050, "##dle": 7916, "scenario": 12671, "our": 1412, "Fort": 3144, "achieving": 11190, "1880s": 12931, "loosened": 24973, "##iper": 26734, "##eae": 19460, "113": 12206, "heard": 1767, "fails": 12169, "trademark": 12557, "Walton": 14862, "lifeless": 25581, "##5": 1571, "##\u0434": 28396, "Goa": 16235, "##law": 9598, "orchestrated": 26383, "conglomerate": 27482, "acronym": 22478, "Vicky": 25452, "cooperative": 14561, "happens": 5940, "##stabulary": 26644, "Swansea": 17057, "prostitution": 17192, "##\u09a7": 28554, "arrows": 15130, "lunch": 5953, "Lorraine": 14378, "##aging": 10588, "105": 8359, "foreign": 2880, "Yemen": 14466, "##CF": 27783, "##BC": 9428, "fur": 9015, "formidable": 20466, "ICAO": 19426, "Theodor": 23704, "##unity": 22534, "VFL": 15124, "McCartney": 16116, "##\u00e9n": 12640, "hissed": 11406, "owing": 13412, "playwright": 11617, "##\u0251": 28275, "Nadia": 15686, "##dling": 21869, "typing": 26716, "exaggerated": 18088, "with": 1114, "170": 10837, "behind": 1481, "Peters": 12648, "Screen": 15652, "Engineer": 8252, "##ulos": 24153, "embarrassing": 17810, "##vern": 24472, "securities": 19313, "\u014d": 312, "Daughters": 24645, "modifications": 13334, "\u044f": 506, "Rights": 5399, "Start": 15599, "##orted": 17425, "affect": 6975, "Mix": 7347, "##evity": 25769, "honeymoon": 25619, "to": 1106, "oxidation": 22256, "##\u056b": 28427, "##keeping": 14692, "students": 1651, "Presidency": 18037, "Liv": 26997, "##\u305d": 28800, "transporting": 19920, "colleague": 11864, "tossing": 16824, "course": 1736, "1863": 6293, "Macy": 22957, "##sla": 26597, "whether": 2480, "##li": 2646, "Catholicism": 17164, "##bot": 19937, "il": 14596, "revival": 9408, "policing": 27841, "Call": 7268, "##tribution": 14970, "compressed": 18273, "Jericho": 18545, "soft": 2991, "inducted": 8016, "takeover": 17748, "stairs": 4377, "moral": 7279, "scary": 13952, "magnificent": 14524, "Melody": 14653, "Forty": 15487, "Sicilian": 25150, "##pute": 22662, "heights": 16291, "evening": 3440, "Act": 2173, "Audrey": 14707, "vicious": 16094, "observe": 12326, "sauce": 14313, "parental": 22467, "addition": 1901, "governing": 9042, "##ulu": 14693, "Eaton": 18909, "urgency": 21573, "journeys": 24452, "denoted": 21307, "\u0272": 363, "trapped": 7333, "##pta": 21919, "##loy": 26179, "##\u30aa": 28829, "Morton": 11142, "Extension": 20838, "##\u0995": 28544, "Tulsa": 17712, "##\u2089": 28716, "##field": 2427, "taped": 21485, "##erial": 19860, "##hab": 17266, "overlooking": 12904, "##bby": 13575, "[unused68]": 68, "barking": 26635, "Yacht": 27508, "annual": 2683, "Sofia": 8713, "La": 2001, "##smus": 23283, "##\u026a": 28283, "\u0565": 516, "##ego": 23820, "veil": 20945, "cone": 15775, "##text": 17380, "forms": 2769, "meat": 6092, "eliminated": 5802, "##\u03af": 28338, "##\u0424": 28385, "impacted": 20968, "capital": 2364, "##ishly": 21120, "plea": 16150, "Christianity": 7522, "Daphne": 18175, "phased": 24590, "barony": 26488, "##tered": 7655, "Religious": 12125, "##nchen": 27683, "Harvest": 23119, "Medina": 17250, "Records": 2151, "contestants": 11061, "reasons": 3672, "Clayton": 11867, "endorsed": 11889, "TV": 1794, "Erie": 13717, "Han": 7699, "##\u00edk": 18014, "persisted": 20702, "aged": 4079, "##\u0445": 28407, "commitment": 8268, "Steam": 15144, "Akira": 23980, "Bowie": 15413, "Effects": 23009, "Maid": 27527, "##rdo": 16525, "cutter": 24639, "##data": 27922, "Declan": 17552, "crush": 11321, "imagining": 18632, "Vic": 11600, "##saki": 21483, "Maynard": 24518, "##tled": 16271, "Captain": 2791, "Stark": 13562, "results": 2686, "pool": 4528, "Koch": 16165, "three": 1210, "Choi": 19948, "gaped": 26722, "##Y": 3663, "ages": 6776, "Comparative": 25741, "calculation": 19218, "##af": 9823, "##icides": 25606, "Jen": 16705, "Response": 24187, "Tag": 9697, "senate": 22719, "##log": 13791, "illusion": 14488, "communicate": 10621, "such": 1216, "Murphy": 6528, "Gazette": 11698, "pronunciation": 17238, "##ence": 7008, "evolve": 23530, "spectacular": 14449, "Klein": 12782, "Holland": 7465, "Canadian": 2122, "symmetric": 21852, "\u1e33": 731, "Suddenly": 7935, "weapons": 3595, "##quid": 24235, "block": 3510, "borrowed": 12214, "Bremen": 17339, "##lade": 21414, "competition": 2208, "qualifiers": 23504, "Burke": 9661, "##bial": 23467, "##off": 5792, "helm": 22778, "Dusty": 23246, "template": 27821, "confidential": 25557, "##llow": 24834, "##cellular": 18091, "parachute": 22021, "suspicious": 10108, "##alk": 23074, "##ible": 5225, "##work": 5361, "sheet": 6837, "congress": 16821, "v": 191, "effectively": 5877, "criticism": 5879, "proximity": 10013, "##sonic": 19500, "##zine": 25593, "charities": 18844, "Body": 10341, "breaking": 4440, "5000": 13837, "Grass": 22210, "##stock": 22248, "doses": 24429, "Minutes": 19051, "#": 108, "yards": 3422, "prosecution": 12369, "memory": 2962, "launched": 2536, "\u10da": 701, "##mount": 15364, "Iain": 27869, "altitudes": 24604, "\uff09": 1098, "##lio": 9436, "##father": 16064, "noon": 13282, "Sparks": 20759, "##rgent": 14527, "bay": 5952, "superiority": 21378, "reminded": 6393, "Nagoya": 27507, "Calvert": 27949, "independently": 8942, "##\u1d64": 28624, "##onia": 11357, "Gilmore": 25624, "##M": 2107, "Waterloo": 14233, "##ilize": 21225, "Thanks": 5749, "Curse": 25893, "128": 11965, "Cuthbert": 27694, "##ness": 1757, "Industries": 10699, "##matical": 26128, "##pion": 20585, "credit": 4755, "traffic": 3404, "Olympic": 3557, "19": 1627, "trying": 1774, "probation": 23793, "\u0996": 642, "teenagers": 13663, "Fire": 4266, "thereof": 24234, "Lai": 25489, "##orra": 27583, "Sharon": 10562, "\u00f1": 263, "Well": 2119, "shrug": 13786, "##dak": 24122, "##jun": 17936, "Appeals": 12566, "stabbing": 24728, "assaulted": 18877, "Officer": 4124, "PBS": 14163, "pads": 21910, "contractors": 19874, "##anna": 11762, "##eca": 25534, "Regardless": 20498, "Barcelona": 7120, "Scarlett": 22991, "sensation": 8710, "##hita": 24648, "sleep": 2946, "##II": 12738, "proprietary": 18287, "irritation": 19380, "\u0575": 520, "\u0131": 301, "exploit": 19685, "Marta": 22930, "##tree": 14750, "Augusta": 14050, "Hercules": 16496, "Concert": 10325, "##lord": 14617, "Tribe": 15987, "Otis": 20579, "chick": 22282, "Law": 2601, "revenues": 13081, "Subcommittee": 23717, "waves": 5685, "science": 2598, "##ceiving": 24271, "##\u30f3": 28866, "celebrates": 24408, "##ges": 7562, "Thankfully": 25375, "authorization": 25279, "##HL": 9530, "hated": 5687, "300": 3127, "postseason": 19337, "barked": 18849, "\u00a31": 15142, "Reid": 8721, "##iko": 12260, "##brian": 23187, "battled": 21600, "1908": 4536, "##\u20b1": 28732, "monkeys": 22413, "1885": 5951, "##gum": 19524, "quietly": 4432, "incarcerated": 27437, "Ride": 13643, "##hp": 16194, "piston": 18796, "electric": 3651, "##vio": 17417, "##graph": 15241, "perch": 25886, "Timor": 21597, "author": 2351, "Establishment": 24813, "##flower": 15055, "communication": 4909, "Rhythm": 15885, "Testament": 9873, "trilogy": 14927, "html": 28066, "Racing": 6770, "[unused19]": 19, "Cantonese": 24686, "crude": 14699, "Walk": 10065, "Pro": 5096, "trim": 13373, "##XT": 23206, "wavy": 26985, "seek": 5622, "\u3088": 925, "Classification": 19295, "Dangerous": 20924, "root": 7261, "managing": 7204, "##ifier": 17792, "bathing": 19971, "profiles": 21138, "Ivan": 7062, "Barracks": 20526, "Since": 1967, "publish": 10086, "##els": 5999, "regiments": 11988, "Chronicles": 17758, "Alto": 17762, "##tras": 25352, "applying": 11892, "roommate": 20116, "\u0416": 454, "stations": 2930, "Hector": 12059, "dust": 6693, "THE": 7462, "adapt": 16677, "southward": 25256, "moan": 14309, "exhibitions": 8639, "something": 1380, "stew": 26036, "Chapman": 11554, "emails": 24853, "Shipyard": 27542, "attic": 19554, "##ril": 13217, "Died": 18706, "RBIs": 26417, "##rosis": 21556, "Baba": 15602, "worm": 19686, "##owing": 13621, "##11": 14541, "##agh": 19947, "##graphs": 21217, "##yote": 21798, "##cakes": 23393, "\u00cele": 27756, "Rowing": 21480, "Elliott": 9657, "##itative": 24936, "##tative": 18216, "broadly": 14548, "applause": 24670, "lectures": 9548, "reviewed": 7815, "##porated": 26762, "Luckily": 20044, "##olar": 21459, "Platform": 17742, "sniffed": 19407, "Catherine": 6017, "##long": 9851, "fortunate": 22649, "1804": 13419, "256": 18440, "ballad": 15000, "##ray": 6447, "\u2082": 813, "Ban": 18393, "Esther": 15261, "postal": 14889, "slung": 22056, "inflicted": 18567, "gives": 3114, "##ima": 8628, "Bye": 17774, "##\u00fcnster": 27077, "belly": 7413, "Gate": 8375, "##ern": 10449, "1866": 7146, "Les": 5214, "##cot": 18982, "Show": 3237, "nobleman": 20444, "RS": 25591, "##cular": 11702, "##chy": 8992, "Aristotle": 18727, "##mett": 23355, "Rest": 20515, "turtles": 24913, "et": 3084, "replied": 3028, "Game": 3497, "cotton": 7825, "##ets": 6248, "Eliminated": 20490, "crisis": 5532, "1793": 12536, "Work": 6955, "##ates": 5430, "##rb": 26281, "rainy": 21098, "Roy": 5396, "##ilia": 26502, "stepped": 2843, "##hit": 17481, "\u2665": 878, "awards": 3745, "##rato": 24306, "subsequently": 2886, "\u1d43": 709, "does": 1674, "gallery": 7183, "guard": 3542, "audition": 16262, "processing": 6165, "Devils": 16459, "blacksmith": 26450, "Wheel": 19754, "sailing": 9145, "establishment": 4544, "Calvin": 11110, "singular": 13794, "##ogy": 15741, "Rocky": 9376, "wax": 17318, "ad": 8050, "Lighthouse": 21432, "Luis": 6132, "phase": 4065, "##rte": 22460, "Foundation": 2974, "##nya": 15449, "Forestry": 23077, "Macedonian": 13296, "helped": 2375, "Semifinals": 15723, "##\u1f70": 28674, "drawer": 13560, "Revival": 8884, "##oxide": 22040, "##fy": 13268, "Digest": 27348, "##\u0f44": 28589, "traveled": 5505, "grazing": 16747, "recommended": 6315, "##erton": 20024, "Rosario": 19274, "##nett": 16302, "##44": 25041, "Slayer": 25642, "Hassan": 13583, "permitted": 7485, "##lated": 6951, "##gging": 10932, "till": 6174, "theorist": 27620, "Stamford": 24944, "Raven": 11520, "##versity": 17671, "recognise": 18986, "sneaking": 23879, "##iter": 19385, "emphasis": 7569, "angled": 20423, "Cemetery": 5501, "Th\u00e9\u00e2tre": 18519, "propped": 18141, "southern": 2359, "strengthen": 13346, "\u09a7": 651, "avoiding": 10101, "studio": 2362, "war": 1594, "kneeling": 19765, "exits": 18387, "visa": 12083, "##ber": 3169, "##ining": 16534, "##\u041b": 28376, "Carlisle": 13939, "cases": 2740, "##bent": 19145, "Institution": 11127, "Aspen": 23180, "##\u0906": 28509, "Satellite": 16827, "Convent": 24376, "Hannah": 8014, "\u0192": 341, "Fry": 20685, "##bles": 8350, "ventures": 20135, "madness": 16870, "##ability": 6328, "worlds": 11308, "abusive": 22898, "Princeton": 8845, "Behind": 8291, "painters": 15233, "Experiment": 28009, "Fringe": 23863, "poker": 15772, "normally": 5156, "##tage": 11535, "##lby": 14974, "travels": 8024, "VIII": 9935, "##lement": 20041, "Tanner": 13369, "boasts": 24372, "Vocal": 15922, "buses": 8049, "Leonardo": 15358, "Amongst": 24693, "Elgin": 26665, "stock": 4482, "rod": 14628, "##\u03a8": 28333, "explosives": 16454, "Italia": 13399, "##tend": 22910, "Norwegian": 4236, "trees": 2863, "##llo": 6643, "##arland": 23464, "##\u0393": 28317, "occupy": 12774, "Customs": 17050, "spoon": 19184, "blessed": 15865, "##base": 14017, "approx": 26403, "equal": 4463, "well": 1218, "progress": 5070, "salary": 10326, "televised": 14463, "undergo": 13971, "evaluated": 17428, "vegetation": 10338, "##ip": 9717, "Sutton": 11163, "composer": 3996, "##gio": 10712, "their": 1147, "modules": 15412, "##love": 24040, "ill": 5178, "##ent": 3452, "theatres": 16069, "Sara": 6936, "praying": 16252, "Cadet": 20306, "wool": 13103, "##reta": 22714, "Hate": 20735, "##\u00e4": 17479, "nineteen": 14834, "resisting": 26337, "Court": 2031, "\u6587": 1030, "Nope": 18455, "##rra": 10582, "splash": 24194, "Alonso": 18918, "##sh\u016b": 27365, "Only": 2809, "Indeed": 10364, "##hui": 23618, "Pierce": 9636, "Nissan": 17574, "drag": 8194, "##lius": 14968, "ascent": 19079, "!": 106, "[unused83]": 83, "##hou": 14640, "Oz": 16075, "premature": 24505, "Ellen": 8821, "##tensive": 27291, "##phon": 21250, "##ought": 26960, "chanting": 25526, "Norris": 16309, "Take": 5055, "elderly": 9808, "goals": 2513, "Everything": 5268, "##bankment": 25306, "material": 2578, "##olic": 14987, "Nassau": 15272, "##chemist": 27239, "##gler": 14849, "disciple": 21647, "$": 109, "##igo": 11466, "##night": 11683, "mosques": 26054, "earlier": 2206, "emotion": 7471, "##roc\u0142aw": 26524, "98": 5103, "pissed": 9254, "police": 2021, "Francisco": 2948, "cleaning": 9374, "eight": 2022, "shouted": 6031, "Polish": 3129, "cave": 5812, "##pe": 3186, "last": 1314, "summer": 2247, "parameters": 11934, "##cle": 10536, "##uel": 24741, "initiate": 19687, "Cole": 4922, "##uda": 15798, "Constantinople": 11827, "dump": 17549, "spirits": 9494, "compact": 10114, "##tized": 26300, "##ump": 15629, "nod": 6873, "header": 23103, "Eyes": 8855, "rumours": 23620, "See": 3969, "Hold": 10860, "1800s": 21655, "manner": 4758, "Maris": 27859, "gates": 8257, "##burne": 26980, "9th": 5612, "computer": 2775, "##coming": 9331, "manipulate": 19109, "Consolidated": 23582, "epic": 11431, "Benito": 26397, "Publishing": 7045, "drone": 22020, "cabinet": 6109, "muscle": 6484, "inactivated": 22951, "##sty": 13913, "\u6d77": 1052, "bicycle": 11639, "cut": 2195, "##sure": 14847, "ache": 12953, "couldn": 1577, "concerned": 4264, "##old": 11015, "unincorporated": 7420, "Cowboy": 21391, "Up": 3725, "Croatia": 7636, "rotated": 23050, "Ford": 4100, "##\u0627": 28475, "Mighty": 17434, "prohibited": 11018, "##rench": 18129, "##ada": 7971, "reform": 5851, "oxide": 17151, "Lagos": 17883, "researchers": 6962, "Babylon": 19014, "hardened": 15870, "##48": 19203, "Grimsby": 27540, "Command": 5059, "##udder": 23007, "\u02b3": 378, "##ui": 6592, "##LS": 15928, "fury": 10842, "rarely": 6034, "Fischer": 13317, "##mana": 28097, "stating": 4797, "bleeding": 9793, "disorders": 11759, "things": 1614, "diverted": 19901, "##tty": 13932, "##day": 6194, "##34": 23124, "critic": 5959, "legs": 2584, "remixes": 20168, "Macau": 17982, "grandchildren": 14139, "pan": 13316, "incoming": 16248, "Pitt": 15877, "saga": 24170, "##gue": 7222, "rooms": 4045, "nightstand": 25895, "deceased": 10281, "\u0107": 283, "##\u042f": 28392, "Computing": 20463, "##rch": 10340, "##xa": 20192, "##fying": 16877, "Africans": 19442, "Gotham": 25418, "##\u0433": 28395, "##\u1eaf": 28646, "collaborators": 24146, "Spin": 22878, "\u1ead": 743, "kill": 2311, "atomic": 12861, "collector": 12116, "groin": 22106, "##y": 1183, "nationalism": 16767, "driving": 3759, "gliding": 25545, "disastrous": 17985, "\u0100": 278, "Cullen": 21696, "bared": 26612, "Sean": 5499, "##iti": 17030, "oversized": 24223, "Randolph": 13290, "##ots": 12129, "##sing": 4253, "shop": 4130, "109": 11523, "echoes": 24390, "Eileen": 22431, "Volume": 6849, "sugar": 6656, "prototypes": 22544, "archive": 12406, "Alternatively": 23104, "symptoms": 8006, "prone": 13557, "medalist": 15257, "trimmed": 24509, "Auckland": 8279, "bowled": 21663, "updated": 8054, "Glover": 21895, "GDP": 14781, "crater": 12742, "Extreme": 19005, "Eastern": 2882, "Anatomy": 26512, "except": 2589, "spit": 15277, "Latter": 20509, "##zano": 23371, "155": 14691, "Professor": 2986, "reggae": 21402, "Islands": 3503, "incomplete": 13975, "##bark": 24063, "tempted": 17749, "equation": 8381, "Rowan": 15568, "##phological": 26920, "\u017b": 336, "confined": 12597, "##inas": 16924, "cost": 2616, "erased": 27248, "yours": 6762, "Shelley": 16738, "Missing": 20801, "spread": 2819, "Deputy": 4831, "dawn": 9623, "\u4f8d": 989, "antique": 17186, "##\u0443": 28405, "##ND": 16769, "##ogan": 26843, "Chico": 25353, "list": 2190, "whispers": 11668, "narrowing": 25277, "Rev": 6750, "giant": 4994, "Batman": 8622, "##13": 17668, "Holt": 12857, "innovation": 11279, "coal": 5289, "differing": 18470, "13": 1492, "Wildlife": 9749, "exams": 15747, "facility": 3695, "channels": 6412, "##rade": 12673, "Ever": 10006, "lace": 15170, "priesthood": 20343, "##64": 22433, "partnered": 12690, "Regency": 23069, "diagnostic": 20346, "Bernardo": 23333, "Penang": 24099, "##icide": 24421, "adjustments": 27939, "restart": 27777, "historian": 4864, "Basel": 14562, "chess": 10924, "distances": 12424, "sermon": 24353, "##roid": 16219, "eyeing": 21593, "Sri": 4471, "List": 5619, "Everybody": 14325, "lamps": 15248, "outdoors": 23178, "##\u3081": 28814, "##dira": 27987, "##firmed": 22750, "1903": 5066, "Peruvian": 16289, "leaves": 2972, "##medical": 20489, "##\u30c0": 28842, "\u0410": 448, "nurse": 7439, "outgoing": 25194, "Operational": 24531, "##than": 22252, "editors": 11884, "relocate": 22036, "gossip": 16378, "1830s": 22286, "##ringing": 27812, "breed": 9489, "##hibition": 16485, "Seneca": 23399, "balls": 7318, "Hari": 23803, "##rwick": 25431, "hose": 25803, "unmistakable": 27360, "dealing": 6705, "elementary": 7876, "climax": 17396, "signalling": 25498, "explained": 3716, "##get": 16609, "Navigation": 21288, "##ahan": 14063, "deposit": 14304, "documentaries": 17221, "minority": 7309, "aquarium": 27496, "##dicative": 26289, "drying": 19264, "landlord": 21406, "Wii": 17716, "Sit": 20985, "Intercontinental": 24501, "##TI": 21669, "assign": 27430, "contestant": 11201, "bothering": 18230, "##ettes": 18289, "whispered": 3125, "Vietnamese": 8763, "rains": 19267, "##\u201a": 28690, "02": 5507, "facilitate": 11000, "menu": 13171, "edges": 7521, "##\u3068": 28805, "Caldwell": 17649, "Beyonc\u00e9": 24041, "damages": 12947, "##vant": 14194, "fracture": 22869, "Consort": 27765, "##cis": 21349, "Via": 15709, "traces": 10749, "##MM": 25290, "proceeds": 11283, "Stones": 15165, "songwriters": 26324, "##mill": 11734, "Simmons": 14068, "Provisional": 18639, "##HT": 18784, "lavish": 25871, "peacefully": 23954, "Milan": 6390, "##wo": 12821, "Yugoslavia": 8575, "choke": 18603, "Bon": 17182, "##oma": 7903, "##kumar": 23107, "##fect": 11916, "Padma": 26922, "Trustees": 15340, "Rookie": 14461, "Andre": 12971, "USAF": 20010, "##var": 8997, "Process": 18821, "Melvin": 23088, "##\u0639": 28490, "com": 3254, "manifold": 22502, "smashed": 15231, "##erd": 25081, "##cess": 22371, "Forgotten": 26286, "sheath": 24561, "Southern": 2685, "##worth": 4189, "Dale": 8238, "##dl": 28054, "##thi": 14298, "compass": 23962, "Myrtle": 27557, "233": 24482, "medication": 15683, "outlines": 25854, "##sz": 21529, "resident": 6408, "Boyd": 12286, "UAE": 18925, "balance": 5233, "Fanny": 19950, "##tarian": 24279, "Brook": 10597, "anthropologist": 26232, "nine": 2551, "##ably": 5382, "umpire": 25077, "\u1e25": 728, "competitors": 10388, "Sampson": 24468, "##ceived": 21437, "Mata": 28044, "launcher": 27966, "BWF": 23342, "Designed": 20879, "dad": 4153, "Club": 1998, "Ark": 19372, "Crusade": 23983, "##eves": 19316, "national": 1569, "room": 1395, "posterior": 16530, "Bernard": 6190, "##gt": 19815, "restaurants": 7724, "creep": 24090, "##\u044e": 28416, "##aka": 11747, "##\u0623": 28472, "##ni": 2605, "Yuan": 13049, "fifteen": 5147, "vol": 10857, "##tieth": 24115, "Marina": 11391, "integrity": 12363, "forefront": 26325, "Improvement": 22053, "Royal": 1787, "obscure": 15574, "##erse": 22184, "Carnegie": 11298, "\u1e43": 732, "yielding": 23731, "##ours": 24453, "Mon": 22401, "second": 1248, "photography": 6427, "oddly": 18609, "implicated": 22512, "##onda": 25323, "##an": 1389, "Thompson": 5271, "mothers": 12694, "Talent": 17077, "computers": 7565, "Nicholson": 18063, "##7": 1559, "amalgamated": 22131, "##\u0436": 28397, "...": 1232, "##ef": 11470, "Jimmy": 4479, "cruisers": 18755, "weaknesses": 24417, "arrested": 3950, "repeatedly": 8038, "discouraged": 25761, "Slovenia": 10163, "picture": 3439, "365": 21033, "bound": 4930, "hiss": 23382, "physicist": 14646, "significance": 7467, "##aris": 26464, "##cript": 13590, "correlated": 27053, "dated": 5422, "##isi": 26868, "unification": 21476, "item": 8926, "##rilla": 18792, "\u0261": 359, "Herald": 9707, "statewide": 15086, "downstream": 14102, "vocal": 5563, "translating": 26894, "Hernandez": 23819, "older": 2214, "confirming": 21295, "##gaard": 19572, "Bear": 8073, "Western": 2102, "Chorus": 16415, "##TF": 22169, "Rani": 24202, "Duo": 26401, "116": 13096, "Beaver": 16626, "owl": 19976, "Norma": 22796, "\u307e": 918, "Fin": 19140, "diocese": 9856, "manor": 9764, "comics": 9767, "\u0bcd": 682, "##rson": 15379, "Weston": 12946, "##edly": 17797, "encompassed": 27072, "##kai": 10098, "Carmel": 21208, "turbine": 16181, "Museum": 2143, "Banner": 18985, "D\u00fcsseldorf": 19822, "reinforce": 21293, "jumps": 15457, "terminus": 7132, "Inverness": 25558, "ordinance": 26585, "##dge": 8484, "Source": 5313, "Affair": 20840, "##\u99ac": 28978, "styled": 14174, "Northampton": 16873, "\u2609": 875, "anchor": 8494, "Bruins": 19552, "##tman": 21544, "shrugs": 26733, "Individuals": 26381, "volcano": 15406, "Stores": 26811, "Macintosh": 26162, "request": 4566, "[unused15]": 15, "upheld": 17923, "Edge": 10403, "Six": 4995, "Kenneth": 8488, "all": 1155, "##PA": 10147, "##\u2083": 11851, "##oken": 27443, "##asures": 27523, "buyer": 20315, "passages": 14888, "edited": 5045, "proposal": 5835, "decreases": 19377, "##ologies": 20941, "Amor": 22304, "Hern\u00e1ndez": 22844, "blocks": 5511, "rocking": 16964, "Olivier": 15061, "survivor": 17544, "Suns": 25412, "proliferation": 23766, "##vis": 9356, "\u1e47": 734, "Facebook": 9078, "rapid": 6099, "thigh": 9973, "Somehow": 13039, "Diploma": 16333, "owned": 2205, "Euro": 11854, "exotic": 13640, "Ships": 21016, "succeeding": 13605, "hem": 23123, "forward": 1977, "occasional": 7957, "##zzle": 21011, "BMG": 27622, "Indoor": 12617, "Angola": 13833, "##pent": 22083, "1869": 7354, "_": 168, "Services": 4326, "Busch": 16773, "##lattered": 26355, "project": 1933, "##ver": 4121, "Pop": 7312, "daughter": 1797, "NHS": 18435, "marching": 14058, "##\u5409": 28893, "wall": 2095, "\u2192": 845, "Israel": 3103, "foothills": 21864, "incapable": 21888, "gigantic": 23275, "##\u09be": 28566, "frame": 4207, "opinion": 4893, "twins": 10519, "allowing": 3525, "breakdown": 14025, "threads": 18636, "Bold": 19096, "breaks": 7610, "Assembly": 2970, "Danube": 17230, "##scopic": 21442, "##uating": 20807, "Honourable": 22110, "spreads": 23237, "\u0141": 305, "##\u0648": 28496, "Pak": 26850, "Geoffrey": 10985, "convened": 21419, "Liang": 18842, "Oriental": 13078, "##ches": 7486, "dude": 17869, "Houghton": 23364, "Deutsche": 12054, "Likewise": 18872, "Damn": 8441, "Barrett": 12908, "Coke": 19630, "earl": 26593, "Nakamura": 26903, "##MP": 12347, "##rate": 5498, "tilted": 9766, "Areas": 20371, "concurrency": 27994, "weak": 4780, "Madrid": 6331, "##FS": 17691, "scientists": 6479, "V8": 16796, "continuation": 14961, "awesome": 14918, "Bomb": 19312, "Protestant": 7999, "strain": 10512, "shelter": 7890, "Watt": 20862, "Ankara": 22206, "nobody": 8582, "elements": 3050, "Hungarian": 4852, "##chschule": 27357, "##ryn": 15023, "Chronicle": 11047, "conflicts": 9802, "Donovan": 12930, "Plastic": 26759, "confrontation": 14002, "Mongolia": 14388, "Flow": 25549, "1946": 3064, "often": 1510, "clerk": 9477, "checked": 6488, "##|": 28154, "vascular": 26557, "\u30ac": 938, "weekend": 5138, "habit": 10671, "proud": 6884, "Cam": 14805, "##zad": 24981, "Booth": 15551, "[unused39]": 39, "evolution": 7243, "\u91ce": 1078, "trap": 8598, "Boulevard": 8691, "Nintendo": 9811, "everyday": 11236, "Baldwin": 10944, "grants": 9295, "Dominion": 17609, "coasts": 23278, "##uze": 26583, "\u00e4": 250, "##i": 1182, "symmetry": 16558, "1955": 3115, "rule": 3013, "spa": 22620, "loft": 24677, "presidents": 17702, "Alberto": 12101, "dismiss": 21728, "obtain": 6268, "Self": 9434, "map": 4520, "Shepherd": 13444, "discussing": 10751, "Partners": 12532, "##made": 12540, "Catalonia": 17795, "##\u0936": 28527, "treaty": 7274, "Angels": 8728, "limestone": 10718, "Garden": 5217, "mathematical": 9988, "stunt": 18151, "submitted": 7402, "increasing": 4138, "##core": 9475, "##eveloped": 19703, "##bbe": 20584, "addiction": 15658, "ODI": 23882, "arbitration": 26538, "Romanian": 6481, "metals": 13237, "Weekend": 17240, "Staten": 27188, "ecstasy": 25651, "Danish": 4979, "augmented": 22337, "prominence": 12299, "straightened": 11161, "Cup": 1635, "Hopper": 27013, "164": 19290, "registers": 21187, "##nating": 26434, "censorship": 18125, "guitarist": 5506, "Question": 22171, "Masovian": 26506, "Organ": 20383, "Cooper": 5588, "Petty": 18468, "sanitation": 23353, "##gar": 5526, "##tch": 6943, "##\u0263": 28281, "Samsung": 20799, "evacuation": 15346, "##erly": 11386, "Psychology": 11695, "shorter": 7681, "pacing": 17218, "##\u0397": 28320, "exclusively": 7097, "Hyderabad": 14033, "##*": 28134, "1823": 12683, "Wright": 5445, "Amelia": 11691, "##mium": 19276, "Honors": 25796, "##genic": 19438, "##rad": 9871, "Afterwards": 13611, "Scandinavia": 22570, "##\u1ef3": 28668, "Managing": 16522, "none": 3839, "Pub": 21385, "Infrastructure": 22791, "psychiatrist": 20926, "##ct": 5822, "heated": 9511, "Johannes": 12697, "##vanna": 19434, "seminar": 28067, "Morrison": 9742, "##pered": 19808, "##ross": 21721, "Sustainable": 21779, "##RD": 23354, "Shaun": 17946, "mortar": 16597, "pitches": 21271, "National": 1305, "resentment": 22917, "##rille": 26327, "##cel": 18389, "plains": 14237, "##fender": 27896, "supportive": 17847, "##one": 4798, "Resources": 9868, "it": 1122, "##xed": 14771, "violinist": 18300, "adventures": 12108, "Hammer": 14473, "Certain": 16482, "##rified": 24269, "Shuttle": 20106, "spins": 26670, "ancient": 2890, "DVDs": 25061, "expands": 27903, "##\u1edd": 28659, "VC": 20559, "Trio": 13884, "##ario": 20438, "##rdon": 22528, "senior": 2682, "ashore": 17487, "139": 17683, "##\u0361": 28314, "Spirit": 7258, "##lify": 22881, "wallet": 17364, "Bus": 8947, "Salon": 17420, "##sunderstanding": 27187, "##ficiency": 23622, "##bs": 4832, "##har": 7111, "Sundance": 22012, "rests": 17808, "ISO": 11533, "BCE": 10596, "trance": 21724, "premium": 16865, "escapes": 13481, "PDF": 12955, "##enne": 26042, "Astros": 24462, "Manitoba": 10391, "took": 1261, "runways": 28123, "##van": 5242, "coefficient": 21130, "Philipp": 22765, "Ram\u00f3n": 23775, "revised": 8182, "startled": 10057, "fraction": 13394, "##iator": 26264, "patrons": 14645, "##ery": 5075, "Belarus": 12715, "##uffed": 22236, "##ggio": 21541, "cylinders": 20732, "Su": 15463, "stroke": 6625, "Co": 3291, "accidentally": 9340, "op": 11769, "Ned": 13105, "emergence": 15351, "mechanism": 6978, "Journalism": 15968, "NYC": 17520, "treasurer": 17920, "Steiner": 23402, "Netflix": 22989, "dramas": 18282, "Brothers": 5216, "\u057f": 524, "distinction": 7762, "##pet": 12924, "zipper": 26074, "governor": 4066, "##sui": 26841, "hilly": 27312, "##\u0428": 28389, "uranium": 16410, "ram": 26084, "Paralympics": 16541, "Romantic": 20359, "##hom": 25453, "Devon": 7122, "application": 4048, "frozen": 7958, "ked": 17316, "Idol": 15632, "##ricks": 23587, "constant": 4836, "##ica": 4578, "arose": 10246, "##nen": 9573, "UEFA": 6068, "Estate": 9765, "comprise": 16722, "Dustin": 27381, "Klaus": 17591, "Richter": 21954, "\u3066": 911, "Press": 2544, "##itrus": 22220, "master": 3283, "street": 2472, "cited": 6024, "##bian": 12324, "##pable": 20786, "guy": 2564, "scenic": 18307, "nodded": 2471, "believing": 9313, "Adult": 11635, "fabricated": 27615, "Beauty": 10764, "Blanc": 24687, "Brown": 2671, "##OA": 23579, "host": 2989, "##lich": 16879, "##yra": 20153, "earnest": 21304, "##saur": 28059, "clip": 13500, "Kill": 11404, "Deer": 19712, "fee": 7216, "##vitation": 24892, "refugees": 8940, "fathers": 15920, "electronic": 4828, "##fected": 21601, "moved": 1427, "hangar": 22043, "##ssie": 16869, "560": 23386, "columnist": 14219, "##runch": 22715, "families": 2073, "continued": 1598, "trumpet": 10273, "Bayern": 23517, "linguistics": 23213, "profession": 9545, "relatives": 8908, "Sa": 17784, "stakes": 17930, "201": 17365, "harvested": 25309, "##mare": 26797, "Of": 2096, "colloquially": 27963, "gave": 1522, "instinct": 14683, "imprint": 17322, "##chayat": 21753, "##ach": 7291, "Trinidad": 11923, "fingers": 2220, "tapping": 16911, "territory": 3441, "Hutton": 22298, "gained": 3388, "terrorism": 12010, "supplier": 19161, "##nky": 22792, "##ek": 4820, "Scouts": 13349, "heel": 12781, "##izes": 9534, "##CI": 19747, "##\u795e": 28957, "incarnation": 17825, "particular": 2440, "monitored": 19232, "retrospective": 18675, "##smith": 11195, "Crisis": 12234, "Wingspan": 24185, "##charged": 23131, "ABA": 24958, "##yman": 13276, "kilometres": 2850, "##lous": 12769, "Hertfordshire": 20455, "defending": 6611, "Janet": 9788, "stereo": 17000, "##land": 1931, "rolling": 6362, "##clave": 16768, "Greenville": 23035, "enters": 7603, "Wake": 13062, "##ssel": 16077, "\u0650": 596, "2015": 1410, "Osborne": 17802, "au": 12686, "##ranged": 19587, "knocks": 24895, "adopted": 3399, "penny": 24585, "wrote": 1724, "floor": 1837, "halfway": 9079, "Salvation": 22781, "rental": 13519, "bullet": 8417, "tape": 6649, "##rington": 22530, "fighter": 6295, "Editorial": 23640, "terminals": 20618, "Playboy": 24071, "dispatch": 27209, "Ezra": 17275, "Eugene": 8889, "seems": 3093, "Vince": 12279, "AS": 15278, "detected": 11168, "Berger": 17911, "responded": 5133, "Cinematography": 27062, "##hun": 17315, "Counsel": 18645, "production": 1707, "Thomson": 11141, "Peacock": 26102, "realize": 4663, "spoken": 4606, "Randall": 13001, "stir": 17977, "Massacre": 20507, "Disney": 5712, "Happy": 8325, "vengeance": 19320, "Things": 7149, "Rep": 20777, "Dyke": 28055, "invasive": 19849, "##ddle": 13002, "billion": 3775, "toes": 10497, "regret": 9005, "Inter": 11300, "IT": 9686, "solitary": 15801, "37th": 25659, "overseeing": 21661, "1751": 27479, "mattress": 14090, "##iably": 22368, "sixty": 9229, "String": 13604, "Students": 6510, "bursts": 21254, "##cane": 27313, "flung": 14574, "inspire": 21792, "confesses": 25528, "Cyclone": 26847, "devised": 15724, "##posed": 13541, "vital": 9301, "anyway": 4050, "##itor": 15419, "newsletter": 24343, "slides": 15766, "bordered": 11460, "Beirut": 16136, "##int": 10879, "command": 2663, "males": 3508, "shifted": 4707, "vast": 6047, "\u01d2": 346, "Pearson": 13079, "Relegated": 17997, "entertaining": 15021, "##\u0915": 28510, "magician": 22334, "undertook": 12722, "Her": 1430, "testing": 5193, "WR": 26476, "plays": 2399, "##state": 19596, "##tters": 18899, "waited": 3932, "##eek": 20059, "coffin": 16638, "MVP": 12162, "takes": 2274, "Surrey": 9757, "##\u2081": 12183, "##25": 17600, "Yo": 14941, "VHS": 18808, "Tina": 12106, "Aberdeen": 12184, "##\u0baa": 28576, "separate": 2767, "313": 25620, "sun": 3336, "Marius": 21915, "jersey": 14953, "prairie": 26842, "individually": 15473, "channel": 3094, "Anyone": 15859, "##zan": 14883, "wells": 16998, "enthusiastic": 15496, "Ice": 6172, "##ain": 8104, "\u207b": 809, "Seventh": 13121, "\u0995": 641, "surplus": 17317, "Isabella": 10206, "resolve": 10820, "\u0947": 632, "Russo": 18182, "Rockies": 24860, "##rst": 9731, "Syrian": 8697, "concluded": 4803, "involved": 2017, "Lyons": 17728, "helicopter": 7948, "##nu": 14787, "IAAF": 23398, "personalities": 13497, "Dhaka": 17558, "##pressive": 16568, "buying": 9241, "filling": 7843, "corruption": 8065, "Min": 14321, "##\u0414": 28370, "##ffing": 17242, "Lyle": 24311, "followers": 8618, "screams": 12264, "Rugby": 5457, "##\u5cf6": 28915, "Drive": 6877, "elves": 25743, "rush": 6274, "Southampton": 11881, "##color": 21829, "wicked": 13273, "fortifications": 15542, "Doing": 27691, "Revolutionary": 9013, "quasi": 21711, "catering": 22709, "pick": 3368, "weakening": 24721, "##tony": 25843, "##\u00f3n": 4722, "subjective": 23481, "moment": 1721, "neutrality": 25449, "Dom": 16727, "guards": 5292, "##g": 1403, "Biological": 20312, "bats": 13534, "##bol": 15792, "395": 27790, "198": 21801, "What": 1327, "Lecturer": 24378, "##dal": 6919, "Franz": 8615, "Isabelle": 14446, "lose": 3857, "distract": 16989, "Fitness": 28074, "Critics": 10320, "1779": 18870, "##so": 7301, "##uction": 18305, "amplitude": 25437, "##nal": 7050, "\u099b": 645, "Sporting": 13365, "\u0101": 279, "Gathering": 26532, "saved": 4987, "Marks": 16875, "Toyota": 11801, "crying": 6675, "vertices": 20803, "extremely": 4450, "##berry": 6614, "R\u00edo": 21683, "interview": 3669, "cutting": 5910, "reefs": 24934, "burying": 25317, "##zing": 6185, "spiritual": 6170, "Comics": 7452, "1878": 6723, "Natalie": 10752, "##VA": 12152, "traced": 9286, "relied": 13892, "depended": 18520, "##dio": 13447, "muttering": 27619, "##hil": 20473, "##pps": 21509, "collaborating": 23365, "##\u8c37": 28964, "Haryana": 26022, "##\u091a": 28512, "Niall": 24233, "32nd": 22579, "consciousness": 8418, "\u222a": 859, "##\u012b": 11756, "Bragg": 26482, "##working": 23606, "Mine": 9139, "700": 5689, "##all": 5727, "##tsk": 23450, "##nse": 19054, "Jing": 25837, "##\u0411": 28367, "##tour": 18834, "debt": 6695, "steps": 3343, "discontinued": 8779, "##ility": 13378, "foster": 12100, "Jain": 18489, "downhill": 23895, "drunk": 6882, "Stevenson": 14012, "special": 1957, "thirteenth": 17889, "mourning": 19837, "feedback": 13032, "white": 1653, "fairly": 6751, "shiny": 13388, "advertised": 18428, "##hesive": 23838, "torso": 16374, "Reach": 26836, "Mk": 15900, "##culture": 19695, "Grave": 24018, "fifty": 5547, "chilled": 27278, "##rius": 10048, "Indonesian": 8644, "possibility": 5417, "predicted": 10035, "bargaining": 25656, "medicines": 26016, "Tier": 24391, "integrating": 26975, "Corbett": 27082, "##ivist": 23936, "Wind": 7943, "oceans": 25909, "##fers": 23085, "Ordinary": 24564, "tightening": 20896, "Touch": 13637, "put": 1508, "caught": 2347, "##lau": 15554, "chair": 2643, "politely": 18232, "glider": 23090, "Medieval": 15902, "flowers": 4637, "geologic": 25542, "Culture": 6076, "##EI": 27514, "##%": 28129, "##\u05dd": 28457, "accepts": 13749, "##ents": 9857, "trials": 7356, "\u30d5": 960, "Fairy": 18643, "Damien": 12757, "Mart\u00edn": 18060, "##usion": 17268, "28": 1743, "losing": 3196, "abundant": 13504, "Valencia": 13697, "Comes": 18566, "shaved": 23116, "swamps": 26216, "Burma": 11023, "Invitational": 26897, "nut": 22664, "##TA": 9159, "##\u00f3s": 24127, "##ir": 3161, "##body": 14637, "##nut": 12251, "\u0428": 471, "Original": 7267, "engineered": 16419, "trousers": 16555, "lit": 4941, "##dt": 12518, "\u00c9": 234, "##vir": 25740, "excitement": 8061, "lean": 8290, "citizenship": 9709, "patented": 17994, "##cliffe": 16208, "brighter": 18044, "Bourbon": 19247, "inclination": 24753, "privileges": 15676, "Wallis": 26983, "\u0686": 599, "\u3080": 920, "Violet": 10826, "##word": 12565, "Archives": 12422, "##tile": 23677, "##\u0283": 28289, "##leton": 19979, "##eration": 17166, "Everyone": 6064, "proceeded": 8621, "linguistic": 13633, "1760": 20758, "rainbow": 21489, "tried": 1793, "deadly": 10310, "bad": 2213, "Money": 8948, "drawers": 25604, "sounds": 3807, "##flections": 26871, "differed": 21286, "##lston": 27726, "##child": 21289, "number": 1295, "\u0393": 396, "##fer": 6732, "External": 22841, "Chevrolet": 15348, "Dickinson": 18843, "rack": 16365, "Evaluation": 27845, "mandatory": 11839, "##cks": 8770, "Fox": 3977,
[...]
